[PAD]
[UNK]
[CLS]
[SEP]
[MASK]
!
"
#
$
%
&
'
(
)
*
+
,
-
.
/
0
1
2
3
4
5
6
7
8
9
:
;
<
=
>
?
@
A
B
C
D
E
F
G
H
I
J
K
L
M
N
O
P
Q
R
S
T
U
V
W
X
Y
Z
[
\
]
^
_
`
a
b
c
d
e
f
g
h
i
j
k
l
m
n
o
p
q
r
s
t
u
v
w
x
y
z
{
}
~
¡
¢
£
¤
¥
§
¨
©
ª
«
¬
®
¯
°
±
²
³
´
µ
¶
·
¸
¹
º
»
¼
½
¾
À
Á
Â
Ã
Ä
Å
Æ
Ç
È
É
Ê
Í
Î
Ï
Ð
Ñ
Ò
Ó
Ô
Õ
Ö
×
Ø
Ù
Ú
Û
Ü
Ý
Þ
ß
à
á
â
ã
ä
å
æ
ç
è
é
ê
ë
ì
í
î
ï
ð
ñ
ò
ó
ô
õ
ö
÷
ø
ù
ú
û
ü
þ
Ā
ā
Ą
Č
Ď
ď
đ
Ē
Ė
ė
Ę
ę
Ğ
ğ
Ģ
Ī
Į
į
İ
ı
Ĵ
Ķ
Ĺ
Ļ
Ľ
ľ
Ł
ō
Ő
Œ
œ
Ŕ
ŕ
Ř
ř
Ś
ś
ŝ
Ş
ş
Š
š
Ť
ť
Ŧ
Ū
ū
ů
Ÿ
Ź
ź
Ż
ż
Ž
ž
ƒ
Ʋ
ț
ɢ
ʺ
ʿ
ˆ
ˇ
ˋ
˙
˚
˛
˝
̃
;
΄
·
Β
Δ
Ζ
Η
Λ
Ν
Σ
Φ
Χ
Ψ
Ω
α
β
γ
δ
ε
ζ
η
θ
λ
μ
ν
ξ
ο
π
ρ
σ
τ
φ
χ
ψ
ω
Ϙ
Ϯ
Ё
Ђ
Ѓ
Є
Ѕ
І
Ї
Ј
Љ
Њ
Ћ
Ќ
Ў
Џ
А
Б
В
Г
Д
Е
Ж
З
И
Й
К
Л
М
Н
О
П
Р
С
Т
У
Ф
Х
Ц
Ч
Ш
Щ
Ъ
Ы
Ь
Э
Ю
Я
а
б
в
г
д
е
ж
з
и
й
к
л
м
н
о
п
р
с
т
у
ф
х
ц
ч
ш
щ
ъ
ы
ь
э
ю
я
ѐ
ё
ђ
ѓ
є
ѕ
і
ї
ј
љ
њ
ќ
ў
џ
Ѳ
Ґ
ґ
ғ
Қ
ң
Ұ
Ә
Ө
ӯ
Չ
լ
։
ה
כ
ף
פ
؛
إ
خ
ر
ز
ع
ق
م
٠
٧
٩
ٱ
پ
چ
۞
अ
ल
ह
ഀ
฿
ჟ
ჰ
ባ
ቤ
ብ
ጋ
Ḥ
ḥ
Ỏ
ὁ
‐
‑
‒
–
—
―
‖
‗
‘
’
‚
‛
“
”
„
‟
†
‡
•
‣
‥
…
‧
‰
′
″
‹
›
※
⁄
€
№
™
Ω
Ⅲ
↑
→
⇒
∆
−
∗
∙
√
∞
∫
∼
≈
≤
≥
≪
─
═
╚
╬
■
□
▪
▲
▶
►
▼
◄
◆
◊
○
●
☆
☐
☞
♦
♫
✓
✕
✘
✜
❏
、
・
中
南
大
市
海
町
路
（
）
：
de
na
##s
la
en
in
sa
##a
на
the
to
se
##n
##e
da
##i
je
le
di
te
que
of
un
and
##t
an
is
og
ka
do
die
##m
ya
on
et
##r
##o
##u
for
at
er
да
10
ja
no
van
dan
li
si
za
за
para
ni
der
##en
el
не
du
ki
ng
ny
ar
ne
ta
##k
com
се
me
ir
und
den
##l
##y
##d
per
ma
as
il
wa
##na
med
al
su
ve
ke
les
20
om
12
des
por
det
The
15
##ni
##и
##an
30
it
##а
av
you
ti
##te
11
##j
##er
op
##ta
una
##da
La
##g
that
##м
um
by
har
##ne
with
pa
##е
2019
od
az
att
so
##h
ou
be
##ra
от
ba
##le
bi
по
es
##la
18
##ga
14
16
##ka
во
var
ha
em
##in
De
00
000
est
13
ak
los
va
sem
are
##de
go
##н
##es
##ng
au
Ang
17
##ti
##re
25
100
##li
для
your
was
we
mi
##у
met
os
po
##ma
50
ini
19
ei
non
or
pour
dat
нь
par
ai
2018
24
##ch
##ы
##те
до
од
zu
das
21
##z
##ing
##ja
sing
##та
vi
une
En
von
ing
In
##et
##т
mit
this
22
##mi
##on
##ri
nu
sur
mu
##si
have
bu
www
2017
che
from
tu
или
dia
##je
40
##й
all
ia
mo
23
Na
##ko
##lar
pe
##no
##is
he
ser
del
Die
ji
##c
##х
та
##us
2016
Sie
##do
##se
oo
dans
Google
air
man
##ya
ce
ag
can
km
что
што
ea
will
##ar
##nya
со
qui
##st
las
##я
##b
El
##p
not
sin
ana
##em
ao
am
##і
men
dos
ga
2015
lo
##wa
re
ua
##sa
son
Il
ze
##на
##о
28
09
ва
im
pas
26
Det
##v
till
dem
online
##ki
27
##to
##S
##me
##as
##A
##ia
Le
over
No
##lo
vous
ба
##va
care
##ke
sy
my
2014
mea
itu
her
##um
mais
##ho
29
con
##ce
60
net
##ve
fra
из
##é
дар
cho
Se
lub
pro
co
то
2013
more
##os
##ни
##om
dit
##ed
##ba
New
Bu
2012
##mo
may
##ca
31
plus
##í
alle
##ом
has
pri
Hotel
##it
fan
##nt
##za
##0
##di
##ă
video
са
ee
##2
2011
##kan
up
Facebook
It
To
##л
го
han
2010
##к
our
##ми
one
web
##то
##да
site
01
##ku
##at
##ha
Instagram
##от
Si
##ek
##ur
##f
tai
cov
##ка
##р
но
but
##га
We
как
500
ati
della
##E
35
##tu
##ul
##ов
##1
##ro
ки
ca
200
при
time
bei
##ie
##ju
cookies
kas
eu
##ся
http
ra
nos
##x
min
80
аз
about
Download
fi
data
##ci
Anda
##al
##не
45
nei
2009
##ler
cu
like
90
##go
##д
seo
Sa
##ak
08
##I
##ze
cha
see
70
new
Un
##ning
2008
their
post
inte
##w
they
entre
out
ac
ut
##ji
05
##nu
any
##ны
uz
На
You
##O
oli
sam
##dan
##ë
This
##ли
##á
pre
##man
##zi
Vi
##jo
##ly
amb
don
си
gen
Je
##T
##ge
Les
##лар
##ment
##г
ci
aus
32
##ye
03
##ren
##но
02
°C
II
nou
##ю
ye
##yo
##3
07
06
vir
##N
dei
04
Is
##M
##el
mis
##ndo
##we
ad
2007
это
он
nas
hat
без
##C
##R
##ir
##D
email
which
Stock
TV
also
ще
his
if
##ny
##с
##в
че
##ын
sig
Li
##ла
just
##un
##mu
lang
##ina
As
##5
мен
##L
так
Der
33
Du
300
##ov
era
дека
все
##ки
##ó
ons
via
US
##gi
##id
fun
##4
2000
36
br
##P
Ma
mail
##ти
under
Ko
Den
word
Az
Di
qu
ere
Mae
##lik
##am
2006
blog
##nin
ги
34
Windows
##nda
##nde
who
door
cm
come
been
uu
bet
их
бар
had
##co
Ja
##io
An
##K
us
get
bat
##sta
Het
Ne
##be
##ды
John
су
other
when
tus
менен
what
##ten
##B
San
ina
free
into
soo
##ен
mm
Al
##6
##hi
##or
##ш
38
He
Da
37
##8
же
##den
sit
48
make
##7
film
ju
For
id
Men
##mos
download
them
were
55
Video
ten
Dr
https
вы
eng
39
##9
##ä
75
City
##ks
2005
tam
##U
eru
##го
sie
##pa
како
ano
On
ter
some
деп
information
##F
aux
there
##il
Android
42
##lor
Et
##п
website
его
most
ID
150
Twitter
If
Ka
dig
mill
##ach
sed
mal
Es
За
##î
##G
would
44
zum
##à
iPhone
##lu
##ů
how
pi
като
##ма
400
##ok
need
2004
##ns
##au
Por
dell
Co
Para
Не
има
або
Do
Mi
##ik
dy
than
only
##ь
бо
eo
mat
people
##q
use
##ky
Allah
Los
##vi
internet
##mente
Ni
pod
first
Os
program
HD
nur
smo
##he
Das
про
па
York
43
ach
само
org
##ных
41
##du
##ot
St
its
##lla
##ва
##tan
##ts
Dan
ass
best
##so
##H
##ат
war
##nte
ri
46
би
##ste
##V
ми
bien
hier
##dir
ap
game
можно
2003
##im
Apple
ste
##ban
##ou
##ai
well
99
bis
USA
##ге
##ter
aka
##vo
chi
Nam
part
uns
##nie
Park
ни
ви
##ol
hem
##ные
49
бир
etc
##ana
65
here
##ru
47
cookie
hotel
media
Per
нас
##des
All
ib
Po
want
tre
service
##ку
Internet
Online
end
Pro
year
##nga
мы
##ini
help
san
##ке
ver
##bi
ge
только
##ry
бол
##ad
Me
work
ин
##sti
jew
52
full
fl
years
Service
##ть
2020
##сы
So
95
де
64
sal
ari
це
ham
##ме
Ta
##ita
Ha
set
54
##rs
##ut
way
2002
##ui
1000
##yi
home
day
2001
now
51
China
##ный
Foto
##lle
ima
му
##bo
ZIP
III
Non
вас
те
##ig
кои
mig
ли
##з
mod
hi
59
Cookies
##ine
##han
##tion
very
##gan
tar
под
link
##ben
sus
##nia
##das
##ного
ago
strong
##dos
David
Te
seg
##ung
250
53
these
take
Za
Free
##ты
EU
andre
##ssa
года
56
##ers
много
##де
know
after
Ny
ex
##ty
off
long
##ran
##zo
58
Но
social
##era
back
even
zoo
##ний
jam
##ра
может
See
mp3
##ът
top
Tha
##jen
two
будет
600
plan
Er
аст
model
Una
good
##ble
ble
им
57
але
Для
120
PC
было
того
design
Este
super
##дан
inn
many
said
Man
##ske
##rt
най
време
Mar
3D
through
##ii
##ea
bin
she
tom
World
LED
##он
##ska
##мен
##ч
One
##ll
##ken
час
##š
##ски
##sen
My
info
##lt
And
##tas
hy
Europa
place
##mas
solo
let
DE
##ной
comme
##pe
800
base
system
1999
then
##wo
India
auto
bio
ed
Nu
время
faire
##W
ob
##fa
account
##che
made
tin
io
mid
которые
business
YouTube
##ies
##ле
gli
бу
sia
##ite
mere
если
##ийн
##po
##ам
Во
62
##zione
yen
kg
bar
чтобы
##ну
Ali
Microsoft
final
should
##ди
##Y
United
##ria
noma
Page
France
85
life
вам
также
University
##su
News
##ан
IP
fait
можете
##ийг
##ski
##ion
По
where
##ная
art
##X
sul
Dir
Re
James
ул
real
him
At
ew
USB
##ным
##ada
##ic
Om
после
Indonesia
total
Wir
contra
love
app
much
##ыг
Ar
##my
При
##nen
Street
##nd
wake
Full
##res
page
face
find
right
world
##ят
local
Home
##ton
том
could
Если
##que
##ene
##men
##ро
##ите
great
alt
theo
County
Art
Paris
using
##ст
moment
God
ul
high
sang
Jag
ал
used
Mo
##nak
such
уже
61
problem
fin
##lan
##land
bay
sai
##ем
##ї
два
Paul
1998
because
What
pred
##cu
International
##der
беше
show
72
May
test
support
week
Las
##ere
before
##gen
##uri
same
##are
END
tri
##nn
vo
prima
services
Inc
Club
Maria
ll
Han
болон
##ei
##ele
есть
##pi
line
##len
##ean
ro
Her
##cia
##rea
##ms
##nta
Michael
ty
##сь
##ой
contact
##tt
##ок
START
Washington
##ista
West
Ce
disse
Em
team
last
Samsung
Mr
Air
1990
Web
Bir
ur
##ira
они
##bu
этом
Als
ces
ele
shi
mg
його
##лы
него
очень
Ich
Van
store
being
epi
House
через
быть
English
kata
start
Plus
bona
Op
##ura
deg
ад
##ет
London
##ado
##ж
##тай
##ную
form
California
##son
car
look
Black
Center
##kin
uno
##ona
Ho
##ud
Super
Ba
name
##ida
##ца
66
IV
euro
Post
##ata
Вы
file
Top
type
##тар
эле
над
##них
fer
There
##gu
1997
Ltd
##lah
Как
можна
##tes
##му
Ti
##nti
##san
более
software
personal
ab
qua
rin
63
68
Thomas
Ke
share
CD
down
##ner
IT
Nie
those
##ше
Bank
Robert
просто
product
Website
Ако
##ua
National
live
order
moi
water
bli
god
Ya
American
себе
Barcelona
ii
##sh
##ling
USD
But
Group
##hu
Italia
ban
ти
due
1996
##ica
67
Malaysia
##лары
##ци
By
Dia
area
School
Santa
bra
##ло
available
##th
бы
Saint
Tag
George
vid
той
##ин
person
##tik
Pa
land
1995
put
##це
South
State
##tra
Да
Alle
Play
##б
Star
Martin
bit
##dy
##les
think
each
bare
important
own
bus
around
sun
got
Og
700
##ire
Mp3
September
##ри
##ert
##ima
Mit
##sk
##ting
really
Real
sei
side
ml
Ek
##ay
anti
dwe
yoo
tele
Amazon
public
она
##iga
##ile
##ah
point
days
##zen
##nes
##ии
##yan
album
Peter
98
##wi
tie
##ер
hau
##ant
##cha
##ц
##dor
while
деген
шумо
1994
vita
list
69
##ika
vs
##ist
sta
Songs
material
every
об
Grand
date
hu
##ndi
##ните
They
Это
##by
vom
Бу
How
meta
Ji
##sha
pole
Your
stock
##oa
88
день
три
76
article
##rin
news
case
##iya
Дар
##tor
##Z
##ck
ane
Мы
1992
EUR
Jan
##ela
must
##ць
Med
More
который
ол
code
size
##лык
too
Um
North
give
still
content
Red
##cht
Don
этого
Madrid
71
77
лет
##line
tur
extra
normal
74
##nik
раз
##chi
##min
hei
##ent
##ска
bol
##ang
Jesus
78
пред
Road
##yn
number
Of
anni
control
когда
##сть
Mac
бул
##val
был
96
Como
##00
Tu
Mai
73
lat
mil
##vu
motor
UK
possible
Movie
Ал
ud
William
marketing
180
1991
Beach
between
family
Jean
##tar
Go
Ben
Fi
##dh
##ор
##lin
months
##ring
##rum
##rik
Please
Ini
dir
там
##ко
Sed
High
каб
fit
far
Media
simple
##J
1993
When
Music
них
##ова
##ах
##ния
sub
Bi
Od
Click
experience
logo
86
different
next
##dd
Pero
idea
##rat
где
TripAdvisor
##ala
##sko
fare
ok
еще
gang
110
##ara
ru
Mark
DVD
##mme
##tus
##ret
play
going
##ari
company
bike
##ger
през
82
window
84
ena
Lake
ее
xi
With
ae
digital
##ия
PM
open
hand
была
Read
теле
сам
lot
Big
као
92
book
Brasil
##bar
Day
based
Live
Business
други
81
does
один
kde
России
mon
wax
97
both
##ras
including
school
бер
without
opp
Ak
след
чем
##ната
Galaxy
Our
видео
Islam
1980
чи
Ana
NAME
King
MP3
pot
89
##oni
нам
##ate
79
better
##nan
syn
##ар
things
биде
83
Design
##yon
91
Bay
онлайн
##one
style
##ami
google
Hy
##ian
App
lite
vain
га
version
##ий
##iu
SA
main
году
##ker
##ais
##od
America
League
System
##ez
##ati
Une
pie
##zu
##тер
##си
##сти
standard
mobil
vu
Бул
Smith
##нда
fast
Ein
iOS
##tis
PDF
original
##ад
мин
України
93
Data
##sz
bank
general
Com
Im
87
нужно
##nis
check
##fi
тому
mobile
94
Mais
few
quality
mali
между
Roma
always
##uk
является
##cy
Ir
products
mind
Tom
biz
дип
never
##iti
fine
gun
Esta
##mer
White
natural
ден
old
ant
state
FC
pl
did
##ј
##asi
Як
Jo
##mine
say
даже
dh
Wi
##чи
Mail
song
##sel
Tak
dili
##ER
##zy
comment
Festival
little
Mas
Daniel
Lo
##nar
menu
##ron
music
URL
могут
Lee
Israel
##мо
##ник
image
##tta
Best
Island
1989
lag
##tur
Canada
Now
hur
sport
сите
April
found
address
LA
##ena
That
Ing
Love
text
##kom
##ха
Wat
movie
##van
##ey
##ls
sure
Latvijas
during
##las
radio
Team
##nce
Har
sim
##ги
оны
mini
##се
##ide
something
##rd
ch
three
mano
Game
status
ef
Kim
Film
won
130
Euro
сте
##use
##ами
две
##ня
read
Green
##ча
Jos
today
Song
##чы
tag
##ган
tip
Met
provide
##ü
Tai
Але
cap
##ali
Charles
##ien
kei
160
##ley
Europe
900
ore
##sin
change
##ber
##pu
##ей
##aa
m2
Son
AS
MB
##ым
людей
Ai
Ia
##tia
sale
tv
мне
##нын
persona
tips
Hier
Min
сайт
offer
click
##ani
Australia
##nog
Radio
dom
Max
##ova
Hill
350
Postal
please
process
global
140
color
dating
Casino
Richard
Nan
против
##kas
иде
було
Ale
Am
1970
modern
##wy
Texas
бик
##met
##nou
food
##num
##zwa
фото
sine
SMS
##ili
##ris
Так
Ki
##ç
another
##pen
##una
ман
##ier
##са
Apa
работы
##mus
Мен
within
##ville
Anna
font
##tte
##tti
Here
адам
esa
nego
meter
##jas
##че
##iz
##og
##per
##rar
forum
access
##є
##ore
hard
Auto
Он
small
всех
нет
##let
##дар
год
##ser
NA
буде
since
facebook
##ons
Все
html
##ства
disa
Asia
Office
room
ме
College
место
Ku
Mary
call
body
format
##ту
Su
##ство
##chen
Open
kbps
125
Alexa
metro
##ться
looking
lle
##owe
hom
себя
Din
zi
осы
##rio
Que
всего
prej
again
##ys
##AN
photo
##fu
##ila
тут
било
WordPress
power
пра
##ale
dio
iPad
bl
Ad
East
might
Land
Tablet
Central
##ына
DC
apo
Sport
##hin
able
dr
страна
##hen
group
Blog
Blue
review
vitae
ela
##цца
##lis
level
principal
price
General
работа
Bar
##berg
Life
OK
##ден
item
red
big
monde
тел
project
##гы
Mobile
##ою
##gas
She
360
Paulo
dul
Nr
Jack
##цы
vol
##ula
done
##ное
1988
keep
##би
ton
##тан
##ном
##ens
HP
pdf
pan
sis
nl
course
##ша
vis
dont
##ых
Yang
photos
биш
São
kin
больше
##lia
hope
##mit
Be
Inn
later
Ou
Des
single
начин
market
##tin
Rock
Jones
Wie
##able
##ane
Times
##lara
Yo
Bei
##sse
Royal
##kt
GB
##аа
##eni
нема
below
##iro
answer
Power
Store
esto
##шы
Company
##ver
special
begin
loa
mode
November
##ius
Social
меня
Link
include
kind
##tha
feel
Out
компании
Email
Long
DNA
дома
gas
SEO
аб
##ade
minutes
question
inter
bonus
class
##ure
tab
Ford
working
##nto
porta
##им
away
Harry
Global
##ven
legal
Par
##sia
##ej
мо
области
Casa
101
свою
Kun
##лер
##ши
##tos
коли
един
код
LINK
Ci
direct
sites
OTHER
##ted
pale
ens
Ev
job
Mu
times
Johnson
##ive
##ino
suite
event
Watch
stand
LLC
money
Eu
popular
свой
making
##ong
centre
сол
computer
health
States
Biz
OS
large
action
##тын
second
1960
stop
вони
##ал
audio
run
view
thi
3000
following
house
Chris
Tas
##een
Та
Time
кто
##нд
5000
##fe
self
enda
lib
questions
больш
past
Resort
Ach
community
башка
Christian
Management
cur
##pan
million
1986
##tel
easy
create
Brown
left
Oh
##ama
необходимо
ES
##ete
Au
ISO
права
why
Nova
още
##ове
##чки
ego
deb
##ness
были
Villa
бути
Sony
Server
##дын
1987
##dar
##ови
story
Bet
details
Ви
случае
Francisco
server
1985
Site
add
Was
club
August
этой
Қазақстан
бас
##сын
##ба
##mis
View
watch
Rio
Show
##sten
hot
Louis
##eri
##ice
##ние
search
dawn
##ation
ideal
Nem
GPS
dire
Би
##ры
tax
gr
Program
1984
private
##ую
##ют
##uka
Studio
##ux
against
VI
Zeit
маш
party
##ння
UE
devas
##ano
user
city
perfect
Digital
##nna
право
Tour
Creative
children
Sam
1500
##age
була
Berlin
##yu
jpg
Joseph
pane
##wan
##ue
bag
Juan
##ties
brand
IN
band
sense
##ак
##йте
Old
##ской
Services
Hall
Mike
Cup
ring
series
##ose
жок
Just
These
euros
##ого
##ros
After
mille
BMW
professional
этот
около
Standard
pop
##och
##ab
Florida
sent
жизни
Donald
mor
camera
##ss
Nou
##kel
##hia
##like
##nos
##ket
already
mos
Centre
##eta
Antonio
Adam
MS
##ай
DA
Hann
try
follow
Union
##est
##нан
##cja
mine
BBC
month
##ф
Can
##bus
Kas
casino
AC
grand
##mm
##ora
ат
млн
youtube
##sto
##ese
HTML
интернет
192
First
Up
Bill
River
##sy
card
Dar
thing
##nas
##tat
##ori
Eesti
low
##кой
тем
Gold
bog
ry
Iran
Henry
##uta
информация
Manager
##nica
км
##за
##ise
##дер
studio
##Q
##ity
students
дел
##ola
##fo
105
Note
##ico
Joe
Ол
##ним
##rie
##ль
Williams
##less
США
##чна
##if
##ake
Great
sea
box
сайта
Obama
cz
##sch
##э
ты
EN
games
али
tour
partner
Marie
Chicago
guru
##net
light
application
favor
Health
Lai
VIDEO
clients
##®
smartphone
hours
##tic
cost
Japan
##din
##bile
##С
##tsa
##ib
Ada
##tal
folk
##aka
##kar
Not
##gar
вода
##set
premier
metal
dies
performance
вэ
Ao
sel
##tie
Hi
CA
Software
перед
сайте
ар
tro
##nge
буд
Sun
plant
baby
staff
Tim
##nni
country
Commons
продукти
##А
Ei
##ff
Point
receive
других
uk
см
Ina
fall
Forum
value
##ato
images
needs
##ру
sui
Lan
##isa
##kou
дня
bent
dog
##xa
Photo
ever
others
festival
##uan
Це
##isi
Frank
Marketing
Miss
##mat
##iri
##ix
fo
##Р
Press
phone
Flash
anno
##kat
Kad
несколько
##ee
head
Express
night
Sant
Get
Smart
Angeles
##sche
добре
Lub
##kal
browser
drive
##gang
Und
Ин
Manchester
лица
basis
##eve
##ви
##нинг
которая
offers
До
##ero
th
система
##rer
##oti
450
means
места
##ду
Ve
Mini
##eg
##gh
SD
1983
vivo
1982
ова
less
DJ
Scott
conditions
office
будут
##rna
together
момент
##ев
until
##iva
1950
Pri
ук
##ые
Log
##RA
says
220
col
hit
buy
sett
Alex
research
##ft
NO
fire
source
##ээр
bad
##чка
##nika
videos
England
From
##аар
##ата
##urs
chat
всегда
1945
##the
space
diverse
move
Rwanda
Master
edi
Series
black
Sir
ind
rock
Test
Kurdish
Creek
1979
Steve
После
##ham
##ков
##ON
ала
##NG
President
platform
соли
transport
##ono
fr
худ
update
##qa
ker
170
makes
park
##cin
links
##ping
Anh
fe
Kan
minute
##ция
##los
future
visa
often
тези
Sen
либо
##ster
##jan
##llo
Вам
become
url
человек
##ag
rate
##10
##ram
##ып
ир
Africa
период
network
sector
save
Restaurant
Share
##ый
Ten
log
Linux
##чу
items
Disney
NY
TP
amor
cat
##NA
Museum
Deus
1978
##най
Anne
Model
interior
having
Valley
Journal
##ными
##сан
##shi
##vel
Til
##ins
management
имеет
print
Games
Hollywood
1975
roa
note
1981
message
SE
##ld
свои
bone
дали
Hot
international
##hed
range
LG
именно
##ust
THE
points
Hal
люди
##ovi
##mbo
##ido
##ени
reading
Bluetooth
##ase
spam
Cross
##ского
unique
Chrome
risk
##ich
posts
terra
called
Shop
dollar
CO
##ик
customer
st
pays
front
живот
pet
machine
Welt
options
##lon
##osa
##yen
Western
mate
PVC
client
##lli
бид
gmail
##mar
twitter
Association
Under
features
которых
php
##анд
##ille
Мин
once
nasa
fis
##ds
##hana
ft
complete
training
РФ
Huawei
била
##dia
uni
Deutschland
Про
бе
capital
##vis
Korea
shop
##од
##ком
болот
cos
pay
Net
restaurant
slot
##hat
вид
Youtube
comes
Carlos
##ена
ici
major
##йн
бил
women
friends
ел
##up
key
##ить
superior
##sis
##́
102
law
AI
required
guide
##oi
nk
средства
Cookie
##ische
Taylor
Premium
Sur
lit
Let
along
visit
##lta
##ega
enough
minimum
##yla
##zio
Yen
Pas
##uz
Box
white
Most
##ime
pp
112
часа
Port
four
deri
Young
Set
Come
##rak
Baby
AM
##tura
##imi
ins
CEO
Mountain
мм
##rne
Kong
Ann
above
111
##kwa
Mexico
latest
ita
across
virus
error
##thi
getting
##elo
Rose
Door
128
Sin
Nacional
Start
Victoria
short
##don
1974
June
British
location
##bili
mars
##zza
##zia
1976
##del
115
table
вот
Costa
ST
technology
Ze
human
Va
##cm
240
yet
mise
Good
unit
report
108
didn
least
##bel
ran
104
Ver
От
пры
Drive
##ulo
example
##via
све
bring
Mercedes
##wu
Jackson
##igh
Mei
articles
request
Line
industry
##lat
Hong
часто
такой
##kov
таких
option
1977
UV
season
Bob
Nos
##com
внимание
tale
человека
##å
##cs
War
CE
PS
##imo
Hai
##ging
position
##wood
unde
1920
Book
wiki
held
Nach
назад
Mario
API
##чно
друг
weekend
elo
ideas
103
##ło
1973
Grande
##ля
Jr
##unk
##ати
То
750
Fall
PR
nic
win
були
Ул
Airport
Alla
1972
pm
cause
stress
development
individual
тие
match
наш
сделать
Network
Ut
Pierre
oe
LinkedIn
doesn
##eng
Little
results
Centro
##хои
mob
Oslo
production
##ö
members
doing
времени
Sep
##lio
Portugal
например
##их
##TE
част
##ish
##ous
Hoe
##way
known
##iv
##ит
##ios
##эд
Science
1968
ine
poker
##ел
toy
Без
actual
##ral
European
Nokia
Что
res
исто
Market
Analytics
проблем
Toyota
##bil
programma
##mann
close
бизнес
иш
Pakistan
##TA
learn
center
##ско
Аз
##eli
##nka
##rn
Find
property
вече
систем
term
Dina
map
current
member
LCD
president
IL
href
често
everything
Alexander
Federal
кон
situation
Hotels
Nord
history
Con
Code
##ves
##ntes
sex
led
nature
student
##iza
tel
July
##эн
building
math
panel
яки
мене
##ngo
continue
кард
Technology
Party
assim
March
##usi
низ
desta
##issa
Ban
тим
pr
##лари
started
Pre
particular
##illa
port
volume
actually
1969
central
events
Kevin
Search
though
Change
Sports
OF
Sarah
ради
PA
Andrew
credit
several
##щи
Ман
сме
##зи
Vegas
##зе
кор
##ский
##eti
1200
Milli
##iet
HIV
Food
1971
max
half
своей
услуги
##aga
Kenya
рублей
arra
##ман
Bij
##aha
government
##can
national
будь
##IN
visas
send
одного
paper
Boston
RT
Are
songs
преди
Ved
Sri
Elizabeth
1967
Via
Spa
travel
##ell
##ps
Control
тек
106
Album
Вас
Sau
##ht
бага
However
##eka
##vali
beautiful
Sy
##ции
Auf
##ses
##ech
record
chance
1940
age
##дин
##tanga
target
решение
Hans
##ao
стоит
##ec
##fer
dele
Simon
title
##lit
Premier
collection
##ста
##elle
Gen
точно
living
Kai
информации
iso
##vas
##con
Golden
Amsterdam
Rs
Honda
companies
director
добро
##lang
минут
Intel
##mia
FM
суд
##ува
##чен
fans
multi
##ская
буй
customers
##mai
Jim
Like
##су
дом
детей
Visa
dll
Light
##rte
cy
Research
star
return
happy
##car
Project
cover
issues
Person
Chinese
kie
added
security
EA
index
лише
carte
Ми
Foundation
часу
near
PT
Golf
##ING
RAM
thought
lau
ст
TO
AB
Institute
Abu
given
##ito
Avenue
seen
##hy
1930
provided
Ah
Ora
WiFi
sales
Haz
VIP
арга
cam
Virginia
##rus
Car
Check
similar
study
Family
##ил
Edward
PP
deal
Ef
early
favorite
charge
outra
##jet
##во
##erd
int
##eur
##sson
Or
##tada
double
Pedro
Luis
Ano
Band
##jar
published
107
##ota
##burg
Ryan
bas
##OS
French
Fort
##€
meaning
пен
##до
Pan
##лик
heart
##sed
##лен
among
1965
##IS
части
fear
Vai
Forex
##ngu
sto
users
came
##gy
##М
##ие
issue
master
element
Како
Liverpool
Name
Also
##ване
SP
##ете
Netflix
Public
поэтому
bene
Lord
Ama
related
someone
могу
Main
Fa
newsletter
Argentina
pH
pages
##aza
dema
5G
male
Hay
##lag
Ed
Spring
energy
135
лучше
##пен
##ful
MA
##ас
##чни
Fig
CO2
ве
##ве
labi
true
служба
Albert
Comment
Church
##lus
##dal
##ген
Ech
privacy
portal
1944
##ES
clear
Information
цел
Pak
365
190
ваш
Daily
zone
exe
##ard
Wall
##ium
took
taken
Town
дней
books
gov
эти
Nov
##vin
iTunes
Xbox
Station
##ici
pool
Next
##log
##П
##ding
fact
Will
Со
##они
Image
109
Bad
##fen
##MA
##ун
NBA
Kur
five
Plan
##ev
Some
нови
period
whole
Last
##ego
IS
Manuel
Santiago
fu
Chi
##eo
imma
Ray
##oma
shows
##К
дни
Hun
HR
Papa
Diego
October
4000
Dictionary
##bb
возможность
Patrick
Community
field
Care
present
каде
##nk
oil
320
went
##ip
enjoy
##ек
##тары
UN
##uti
screen
##har
AP
Indian
Motor
Jose
hold
tablet
##esi
works
driver
display
solution
raz
##swa
слова
Limited
Bild
provides
друга
Lady
##гу
Why
##inu
##bat
више
hen
young
flash
Eric
##mes
Jalan
##Д
cool
##gia
1941
gain
postal
Hospital
Carolina
Европа
ему
почти
##ella
##ая
Tony
количество
Garden
believe
##Т
сейчас
parents
COM
specific
Muhammad
##тен
wi
ма
Россия
dk
SC
Ca
People
nice
third
Friday
##olo
piano
Matt
##tek
##wr
AT
##ize
##ща
230
здесь
icon
гол
talk
kids
protection
##ema
rest
компания
Singapore
Audio
profile
liq
##dus
##И
##тся
Milan
Wilson
Fox
Society
Они
##vy
pin
##tz
bada
всё
##bles
certain
Од
laptop
views
помощью
##tive
1900
Chelsea
##dra
plans
mp4
##нун
NATO
Tam
проект
track
1964
GHz
Vista
дело
Price
##xe
Pe
soon
игра
##ngi
Thanks
пад
transfer
Cara
dad
##°
fund
##eke
Area
Jehovah
##нето
##EN
нар
##ism
##field
тоже
iii
надо
sort
ONE
всем
role
culture
##ub
mayor
другие
Bible
tub
118
##tum
Well
добра
protein
build
Prof
биз
meet
ready
taking
##ол
Mat
result
##жа
Today
##ске
child
##ката
purchase
био
##bet
VII
Type
anything
Ju
Cloud
Kinder
impact
##па
lake
##20
##ett
Jersey
114
##али
##gs
1939
##king
##ид
cannot
friend
pass
writing
includes
Enter
##tica
##her
##cher
175
Add
sign
Copyright
1966
##ges
understand
##ces
##ыя
couple
Night
drama
Use
##zer
##ivo
estate
двух
течение
##ному
Corporation
Той
##AR
хора
everyone
##ала
1918
##ците
Егер
premium
телефон
##lash
golf
##ре
Era
moral
Part
##nut
##enda
##mon
Delhi
turn
123
Cha
ensemble
##tto
стала
Gran
##вати
##ина
води
billi
должны
Laura
Marina
sha
направи
focus
##op
град
мора
Porto
##ана
words
1800
Vol
Sunday
Earth
Serie
города
ние
stay
##или
December
District
miss
trading
girl
##port
##var
ту
sna
Thank
##isk
shopping
span
210
device
##жи
Christmas
##pt
tell
hate
PE
Capital
##each
Zo
прави
##AL
Excel
vitamin
rite
budget
ts
119
whether
которой
sir
Review
Total
ним
##ед
веб
кеше
language
recent
Mount
##tsi
##LA
former
##лся
Square
designed
either
Vietnam
His
forex
##nci
player
##pas
quasi
Adobe
##uli
##лись
step
Miller
##nze
Marc
##cat
reviews
Stephen
##ника
Монгол
1962
vele
##gel
Call
Arts
Алар
##ност
самых
аж
clip
parts
Thailand
choose
fort
Space
важно
common
Харин
##ського
кг
##аас
1963
Brian
alia
цена
ask
##dla
apps
##ford
##сон
mental
своих
While
gay
shu
Sky
##ском
Miami
##vati
##50
Awards
##oka
форма
##Н
##wn
Ова
learning
##kia
казино
##оо
Се
Jane
needed
должен
Lewis
lt
Russia
баш
positive
ООД
Kana
roll
Java
redes
bed
Security
##той
Theo
January
areas
MP4
police
RS
Form
iv
Sve
VR
types
использовать
judi
files
Asi
board
##yt
shine
Nick
Word
section
yourself
policy
##rati
delivery
Sea
##нен
##yar
##ню
121
else
255
113
smart
1961
##oli
ко
качество
road
sad
Bha
бала
##mbi
created
1948
##ute
Medical
ата
##house
##ских
Plaza
##нг
эки
получить
Make
пак
тя
release
changes
Joan
Samuel
Card
subject
Fe
Region
Marco
CC
SIM
Id
##ать
жер
Davis
##О
Att
ray
mean
official
lead
cultural
sak
##war
##тор
##US
##ove
##nts
116
##bank
coming
##tore
Von
various
##KA
##gon
weeks
interest
DI
##ват
Status
##RE
ms
especially
Tel
##nsa
Academy
fashion
np
Award
Bio
AG
Kr
Ele
chose
##lim
план
medical
##DA
Oni
##end
OEM
GmbH
Over
Fra
условия
Mir
Suite
solutions
looks
##det
block
ON
##У
бара
tion
running
##ити
AR
номер
Material
##fall
touch
када
almost
системы
homes
##LE
tea
собой
сум
Dam
##zar
##ando
DIY
ling
Anti
cut
любой
CV
leave
six
##ule
Ба
##ac
Milano
regular
145
Channel
##ию
##eza
##ldi
лишь
domain
##ву
##uni
Yes
comments
attention
Del
Year
ball
кое
Kao
Court
Ata
деньги
##xo
##она
##rsi
##ници
Orange
чрез
Happy
KB
document
##gal
##hle
Ex
apply
Nur
##eda
Chan
работу
LE
programme
Edition
federal
117
##вали
simply
password
##лу
делать
##cer
##уу
следует
ie
650
awa
takes
ly
ren
София
Place
rede
##bal
##dio
наших
gift
sat
Oscar
Cruz
каждый
122
cor
##isten
serve
told
professor
Class
хорошо
След
totale
Meta
ways
Eva
Classic
##cho
Dubai
further
tools
Sud
trip
Toronto
construction
1956
##ap
##нага
Roman
AD
diversi
Champions
wanted
##ming
Audi
hospital
127
fitness
такое
1959
роботи
Queen
acqua
аль
Ref
тех
##rade
amount
DO
##zne
continua
quite
##ниот
CS
Text
NUM
trying
fond
grave
manual
##ique
Explorer
Anthony
##eu
##щ
Ob
##шка
Travel
Khi
##ец
Village
skin
Mann
reason
CT
Fire
XIX
Vector
Bo
света
Junior
mani
amp
вели
##py
мае
EL
kit
Water
teng
force
Pop
стали
1958
pretty
били
##oon
эми
financial
formula
##ain
Machine
buri
позволяет
Act
region
##вы
host
1947
##ues
дзе
сразу
Singh
abo
Кыргыз
Fashion
Latin
280
terms
##dne
##дай
550
aide
##ole
probably
piece
ду
##бек
##ното
Jason
Tech
##ern
pad
XXX
Kelly
##AS
Ну
Development
bak
3d
Aug
Bus
##pad
##ности
Jun
##dig
##list
ABC
feature
##get
mix
SQL
effect
нест
##rdi
medium
##sat
##ering
Lisa
чего
спорт
##mal
CPU
animal
Andrea
mem
Kate
safe
образом
Follow
Ave
##cas
Leo
##rk
Ga
виде
ABS
rights
жизнь
problems
Она
Jordan
##umi
late
Sydney
civil
Однако
Ag
144
Datum
пока
##IA
Hand
located
Women
##tre
background
produce
такие
Energy
seal
вопрос
##ans
edu
4K
качестве
Board
Nintendo
##ини
Eng
hotels
001
Georgia
VIII
##30
##лап
124
##нде
##oo
cancer
places
##ники
своего
жа
agent
Morgan
Ще
ка
forward
##ntu
aa
жена
percent
Special
Notre
Duke
1957
Version
Education
1942
android
mark
организации
Police
Tanzania
summer
Alt
green
join
stories
##tate
Computer
NEW
Nike
стане
glad
grandi
XP
firm
##lie
168
MD
ня
Miguel
robot
wit
zip
ensure
Ball
##gun
maximum
##Б
allow
##лна
Ces
isn
Mal
одна
speed
мало
picture
wide
##back
##24
upon
##ike
education
##pis
dim
потому
aw
Department
num
matter
##ef
##zon
одной
Original
route
NASA
Story
BA
laser
systems
trend
longer
##цу
этих
##tem
##tele
##ws
Newsletter
amazing
Emma
groupe
##нар
File
Canon
##dis
outside
##ary
##bra
currently
Prince
miles
tool
films
Wars
##овой
часть
Law
1914
behind
##une
practice
saw
topic
1943
Civil
СССР
Two
German
Justin
##sar
Allen
##af
filter
срок
быстро
миллион
##ün
анда
##oko
##nal
button
semi
excellent
материал
2500
treatment
Info
manager
Telefon
Inter
Problem
Тоа
knowledge
Sara
timer
friendly
##bas
##лау
Thai
Kei
ix
IBM
science
Colorado
MP
typ
Force
mira
пример
легко
126
Core
ui
сегодня
##imit
Anderson
FA
Guide
received
1946
Update
maj
built
Guru
155
written
nothing
pic
##rti
dis
достаточно
##kk
##uro
дела
165
Bali
Firefox
живота
##xi
Alice
директор
sake
write
##ог
XL
Тэр
stage
##ngen
##board
май
Then
##dim
Director
Player
café
Tan
лице
admin
Metro
inside
additional
##bia
##aire
нив
Council
Бид
##чных
propose
opera
Palace
sports
##tri
Uz
беру
##tou
break
Saudi
Haus
differenti
round
Partner
Также
shirt
boy
rele
##int
##tit
detail
др
Country
её
##лах
##тин
hoc
Fun
reduce
преку
Back
EP
cal
hair
президент
1949
Feb
Need
TI
##ED
##ця
##RO
anyone
yoga
260
Camp
##uo
##well
1919
ещё
Gli
materials
1917
function
Чтобы
Rosa
relevant
##ового
Girl
Germany
цей
lis
которого
skills
beta
Alan
##sho
##ум
Terra
Па
Mars
Stadt
129
Unit
Metal
hr
##ои
Arena
spa
warm
модели
данных
SUV
PayPal
##ony
Michel
тысяч
име
Stone
132
Off
даст
List
February
shared
Solo
Magic
asked
связи
##ott
Jeff
##рат
sound
##nus
##tif
hd
##AT
стороны
Local
Carl
choice
##цию
##nso
ике
virtual
lid
database
##iki
##тик
Francis
##anda
1955
Columbia
##ava
likely
Ky
Est
##zed
RSS
момента
Arthur
Boy
участие
TL
Way
ро
addition
##ych
SS
тако
##led
##eb
1600
225
daily
AA
Tus
270
spot
Што
1954
leading
##fin
cases
SI
mol
patients
##fy
Ok
Modern
Бо
ны
Parti
смо
seis
##ail
##еп
Have
Maka
##sing
##ус
BE
##бы
multiple
indi
Ivan
channel
##gne
##кою
##pin
##smo
commercial
station
rum
жил
loss
Те
Dark
мира
msgstr
##eer
1938
##eno
blue
Report
какой
label
Karl
Когда
letter
communication
##menti
enter
rather
таким
Holiday
информацию
reste
член
##GA
потом
Cuba
Arab
##ё
Cafe
Exchange
Fast
##ав
Jennifer
Tot
##alo
visual
diet
api
тебе
episode
demi
windows
Details
pain
##bit
ende
##dum
meeting
дана
Silver
dictionary
такого
##rra
правило
Ahmad
Victor
син
Hei
##bin
Dio
##air
##шки
Baba
Jon
##ир
##kon
AK
Stop
дан
senior
formation
cell
Clinton
Sing
Roger
death
дори
lv
##sie
potential
##хан
##gem
rose
Charlie
Khan
pen
applications
clean
тип
##gat
процес
Sul
1953
Nid
agenda
lim
которое
Moore
##dag
Nigeria
##ost
менее
Systems
redu
occasion
core
оно
ion
свет
##and
gave
Москва
Logo
Who
login
opportunity
##лась
pc
##Е
##rem
кого
Sit
trade
##мы
however
F1
##nder
##нь
court
morning
inch
пари
##aro
##nca
адрес
cari
vehicle
Jay
Malta
полностью
Xa
другой
feedback
salon
Saturday
negative
active
exterior
нашей
Fernando
##wen
usually
Run
Dawn
##rada
FIFA
inta
ky
1936
4G
eye
Room
найти
рамках
##head
Venezuela
Dave
Nei
weight
neo
AdWords
беа
resto
133
Double
ай
##ели
Beauty
Бог
Bridge
млрд
праз
сами
закон
prices
Marvel
##tio
##нии
Skype
Aber
Prix
Abdul
##day
IX
iPod
##oro
воды
eg
одним
назар
NE
Поэтому
власти
##cal
сентября
Bell
нов
##tea
Walter
##nsi
Lodge
UTC
setting
About
##ries
Jonathan
##inis
entry
##bre
кино
woman
xin
бесплатно
Ultra
##aus
artist
hardware
Yahoo
seems
Kids
##В
##igen
drop
##time
higher
Support
musical
##kos
Houston
зараз
##rel
купить
##ур
##tina
hour
disk
cyn
##werk
zero
Opera
insurance
136
Summer
football
Human
directly
1952
gives
Andy
respect
Fil
деле
Sem
##uga
Key
select
AL
projects
1937
Tokyo
##teen
##edi
##yang
Mali
concept
##ture
##DE
##sion
##ется
documents
Cook
engine
talent
##ial
felt
##oy
##pat
##ила
installation
Агар
Continue
Monday
новых
industrial
Week
##ские
Holland
##rom
##gos
Mama
Oxford
safety
##med
##аи
ME
нашем
included
рече
Mon
131
ды
solid
condition
185
lost
oh
##bh
ничего
string
FDA
##нка
activities
##лю
uses
Cape
PRO
increase
Най
нового
##ис
town
Vis
college
##dit
##ори
Mode
sh
walk
##ill
##ments
Cu
##vit
fri
DR
тул
Jacob
##TO
dil
##bang
Entertainment
hang
Gabriel
201
Final
peaks
Romania
Job
139
вместе
Ft
Bush
mission
##rad
xxxx
press
тус
install
Владимир
Puerto
договор
мир
##cos
SELECT
familiar
drug
Yoga
шул
average
growth
recently
Member
##ame
Want
##ность
##tro
Cambridge
юк
##hal
район
6000
streaming
##eth
Ваш
случай
lives
Dance
Austin
KA
aca
throughout
Nelson
Tower
tank
kilometer
##лан
##inta
##unda
websites
millions
нова
gold
parking
Monte
действия
##оти
138
Portal
improve
copy
ultra
##lina
allows
instead
acid
Oct
числе
loop
Zu
Take
149
2021
##box
##asa
##ются
##non
VPN
являются
##лни
Learn
##lana
limited
editor
Кроме
1080p
environment
зв
текст
Clark
наши
##dom
Barbara
Mrs
Koma
Из
##logia
according
око
limit
Oil
Stockholm
средств
equipment
клуб
steel
pick
surface
GT
author
Santo
Ra
bla
Access
##ette
тыс
Roberto
WA
Todo
Institut
##art
Av
alternative
worth
Kit
Apps
Trade
Dragon
Linda
##hwa
Collection
Hz
Privacy
Wikipedia
resources
fix
Беларусь
Muslim
custom
mane
Prime
256
Winter
Even
Kom
##има
эл
##ними
cash
##lite
born
##ница
Bruce
success
Style
XVI
##же
##mel
Вот
Presiden
CNC
##ude
Jam
guys
##ено
analysis
##red
grade
##kho
##лно
Municipal
##ney
Lei
py
##book
Buy
LTD
ээ
AND
humor
конечно
stat
Universal
##ped
hast
leader
wedding
Putin
##erte
Sultan
199
##dem
Charlotte
monitor
##°C
##ое
purpose
##vna
Head
##lem
##rg
goes
##ET
Airlines
Once
Coast
проблема
Benjamin
wee
##rate
consider
бие
##idi
nis
easily
scene
правила
##nite
данные
137
Hon
GP
quickly
Falls
##par
книги
##far
Mara
shipping
Lucas
##хо
figure
Volkswagen
Illinois
##лган
Voit
##az
ras
reg
Magazine
топ
ребенка
holder
profit
проста
Така
Wood
FREE
hear
EM
134
##lab
Ontario
Mari
##mir
##nau
##tara
career
Kia
##pp
cross
experts
Silva
ort
##EL
Training
planning
Ferrari
##oso
solar
##аш
MC
goal
Italy
Pacific
Natural
Hamilton
SR
Dec
Northern
##мын
Var
##vio
Ние
User
Action
Pin
train
##dt
шоу
ISBN
HDMI
sv
##нин
Angel
cream
Brand
Phone
Sang
##lay
Chile
1933
Cali
##tok
##tim
parties
330
эту
Ankara
##ос
##ках
Camera
1951
trailer
ней
свое
NET
##ilo
advice
organ
effective
hands
variety
##вала
масло
##овые
решения
Gary
720
толкова
race
gets
Save
##turi
ET
Wer
теперь
novel
дизайн
Cat
Sign
##NE
##ult
BC
скоро
countries
евра
Jy
CM
pub
##rian
точки
##лася
FBI
dock
лечение
вопросы
##дун
character
480
fac
продукт
игры
beauty
страны
optimal
Luna
##эй
тогда
session
Qui
##lum
##tun
##aba
##лек
1st
myself
wall
PHP
Racing
##lad
##nius
players
street
str
entire
recommend
Mart
License
среди
frame
Diamond
Christ
цели
147
Personal
Gmail
Nuk
Commission
тук
shall
tech
XI
Howard
providing
##sas
stare
Mana
Other
terminal
##ear
##rice
През
remember
bug
Walker
##nse
##ив
Single
сила
tr
Julia
10000
прав
ведь
##jin
costs
MOD
Che
могли
Russell
первый
##bot
инде
народ
Wa
##CH
##дары
##ление
##ера
direction
posted
##ug
payment
##pit
input
##иш
wish
##side
##ings
значи
glass
SL
professionals
Lane
магазин
товар
саме
Suites
Guy
GM
Library
cinema
САД
новый
##stra
interested
programs
expert
techniques
Mis
Intel®
1929
##RI
##out
тот
##HA
Oliver
##ym
YA
MHz
##овых
Ireland
Hills
Dell
commerce
mineral
##mt
Lincoln
Wild
interview
##vet
HTC
Wayne
сама
rival
feed
fat
aluminium
##nic
Made
##сен
##JA
143
Moon
##tso
152
Trust
бус
soft
plastic
Hello
##ян
Color
floor
141
diabetes
playing
lower
курс
##ск
машина
##cis
находится
Low
Ms
##лады
Isa
AMD
##ep
##lom
##yr
хотя
Zum
SAP
dere
##dora
sexual
##hon
142
##ык
процесс
стал
Castle
pt
имеют
##NO
Body
interesting
##ира
mamma
##inde
Lima
kilo
Bangkok
embargo
##CE
своим
##ель
Only
доста
##ams
feeling
Brazil
Jazz
##sus
interface
protected
necessary
fresh
contract
Mix
Robin
какие
##more
population
руб
380
XX
register
146
Touch
##pon
Johannes
##эр
148
WC
##kai
Prima
benefits
этим
disco
ordre
Их
Arbeit
850
DS
Amin
Harris
##ева
complex
TT
Mine
эш
Southern
History
default
Nissan
ones
##ора
Andre
emi
Ae
##sm
ability
Dallas
территории
Matthew
##ave
Contact
151
Marine
Grad
highly
##iy
##даг
SSL
proc
thanks
Delta
Steel
##pita
##ять
camp
Blu
##aw
205
Many
Case
raw
пам
##dre
Sound
Renault
End
##oda
1935
Russian
##ява
Pi
##ex
Pennsylvania
Christopher
Steven
Украины
##ела
dare
groups
помощи
##hus
##oun
банк
CP
##park
##тка
доллар
Any
Italian
sell
Интернет
##кан
##ře
Vincent
##ae
Professional
рет
Bruno
fog
SK
helps
нав
Atlanta
Major
##ъ
Tab
genre
товара
##IT
Ocean
Wales
Aga
лесно
MM
Edge
##ово
производство
Luke
края
форму
должна
Football
мэт
XII
Browser
ди
##qi
часов
##run
##бе
ZA
Rome
Apartments
3G
magazine
##чного
Switch
Dann
##ями
Corp
каза
TOP
Records
Zoo
wrote
##тон
##tna
##she
##ntis
tree
wrong
Hur
Bon
mom
режим
195
quick
##all
Amy
##BA
RM
temperature
Об
decision
##рын
##ento
Mag
navigation
##kie
political
AV
новые
##unt
мой
mln
Ross
Pass
пет
Iron
Financial
##ct
работе
doc
storage
Platz
##ран
##ow
Senior
Alba
degree
Description
##лды
##рак
method
условиях
cloud
Fair
Nature
хар
jobs
balance
Product
##uto
заказ
Minister
##nel
##cing
analyse
газ
месте
require
Field
Mp4
##вой
##hl
QR
##З
Forest
VS
Rd
вообще
материалов
IR
Ova
##tera
##yd
1912
##ít
1910
approach
развития
handle
Account
bomba
Down
##rni
##шу
A4
счет
##wer
Abraham
##ыр
яку
quo
##lte
SM
QUE
##lands
Guest
ремонт
elements
taxi
кабул
##ецца
##ён
##лж
##esti
Jen
вариант
Чи
worked
##eva
photography
Since
стало
##tab
Jessica
##зу
##rim
factor
Seattle
bg
Neste
Vladimir
1934
Mall
ой
156
micro
GMT
omi
роль
hosting
##ларда
стоимость
MT
##ast
relationship
##уд
ot
Sala
##nit
structure
Mia
##gio
Hey
##ID
Ela
качества
finish
disso
GO
kitchen
rw
##ери
Benz
Emi
Dua
почему
страни
tap
##gin
наша
##eze
vision
правильно
mac
Grace
##gna
##logy
Shopping
Face
rue
##SA
signal
Bella
##bad
giving
wait
##ида
1928
Америка
Jimmy
Dead
PD
Dom
Grupo
##хи
decide
##wat
quot
regional
Alpha
Integer
##tle
999
actions
fundamental
sharing
nm
BB
Us
Ug
грн
permanent
updates
DNS
1932
AN
Seri
Stars
случаи
init
Farm
##oe
215
dam
постоянно
Видео
##ont
cc
село
большой
котором
Gordon
commande
rent
Cho
нея
Porsche
туры
Dana
Voice
rating
Кога
Има
##pel
##ient
itself
Frau
levels
##пи
##â
TM
deposit
##km
RF
paid
##anta
##stan
Enterprise
##rita
##gue
ред
вие
Nun
Buch
Москве
##vou
Welcome
Mer
themselves
Ring
haven
classes
##sky
Tesla
corps
153
##yat
##вал
Quality
Engineering
VA
эх
Тэд
thinking
келе
Shu
##eed
Reuters
cargo
Pizza
весь
Display
ground
Ort
##рды
MG
TE
##rede
PAS
UEFA
beach
Sol
1924
1921
Size
Ian
##dam
relation
wipe
##zone
winter
Chat
типа
##wal
1915
PSD
EE
1922
prof
работ
belt
CNN
Following
1925
village
chip
stuff
distance
coach
Johnny
arm
Date
работает
organisation
##vik
Side
##die
banka
практически
Springs
supply
Erik
Parker
Safari
мире
Pink
##нне
вами
sensor
bok
##ement
температура
1913
Ee
Pia
difficult
кем
cuisine
##бар
##йг
Volvo
MI
sum
##кы
fully
основа
lever
##nski
Svi
vote
Source
Jacques
значны
##qu
dur
кредит
A1
retro
deep
arts
возможно
Province
ice
##нт
Douglas
vn
##yl
##ors
DU
Этот
2022
сиз
##bes
Order
163
Estate
Vita
ret
тема
1931
listen
Multi
Zealand
Title
##ул
healthy
##erne
blood
reach
##sit
Massachusetts
##mina
##lam
hip
ними
Mayo
partners
XV
##rite
jazz
starting
pure
Fl
159
##ob
Само
notes
пеш
Susan
Sai
пре
причина
Vila
##rah
##ical
vast
Ara
response
154
mad
##til
reality
Typ
comfort
##yer
Mt
##ками
Japanese
Oregon
Dis
ino
##иб
##вых
debate
##ord
##Г
Adams
script
villa
##water
Phoenix
African
Stadium
sometimes
Wang
traditional
Crystal
##нные
мал
offline
##ших
AVE
Pack
##40
ким
развитие
municipal
Grant
coup
restaurants
patient
1923
Мо
НА
наиболее
##VA
##NT
Kingdom
Finland
##дей
##тки
Nina
Transport
minister
XS
decided
shot
wet
seem
162
##ций
Nad
##AM
messages
Thompson
released
##yk
тела
##ware
##has
Melbourne
merci
дури
##kun
буду
Michelle
##eel
размер
##town
Salvador
став
hry
feet
Heart
kW
DAN
##OR
##mie
##вать
Ctrl
CIA
module
век
Outlook
homo
Gu
secret
models
факт
Apr
coffee
Ken
различных
organization
Tri
161
completely
eyes
##els
##ator
Karen
руки
campaign
##ball
420
особенно
##ото
OR
Send
172
root
creating
sms
score
проекта
bass
relative
сон
Format
светот
rich
PIN
spring
благодаря
Jorge
158
1926
assign
##aki
##льных
##iel
Kansas
act
ks
Potter
Age
Cream
licence
SSD
Cap
##ston
Nama
blogs
157
situ
##льно
cable
Somalia
##SE
Fred
##ими
Oracle
involved
Nice
##ular
soli
Sales
minimal
Girls
##onal
202
cache
pressure
Satu
memory
##cus
Президент
Norte
basic
MO
1927
damage
Austria
ero
pictures
##PA
TA
agree
берет
Bayern
creative
обязательно
##нее
Yi
##igo
##usta
mother
ну
Rev
previous
heard
Claude
всю
##ets
##tone
Comedy
##yna
##zin
RE
Uganda
##ance
##тель
центр
Kay
Kennedy
##rse
rus
ЕС
NG
Сегодня
стране
technique
Base
мая
##ае
Dog
mobi
Dean
дете
Wil
Novi
effort
##pur
Tip
investment
Myanmar
requirements
##ост
Cooper
Philip
пат
wifi
Dollar
услуг
economic
flat
многие
Lyon
Lawrence
Maps
inspiration
UP
##zes
became
Boys
боку
2nd
sole
Philadelphia
Yan
Fitness
dress
##fs
Look
##зы
агар
Sou
самом
ага
Money
instrument
fill
##YA
hop
concert
TIME
Johan
##лт
Superior
Easy
yu
Solutions
aver
##KO
crisis
##ric
разных
##av
самым
друго
##чный
Trading
Ice
Roy
одну
Memorial
происходит
dry
##bach
gar
reo
Evans
lunch
Islands
Stand
##mate
Private
##ION
##ною
регистрации
##zel
Sierra
##iana
Hat
Hunter
##ches
Orlando
##Л
176
мл
Credit
##form
Iz
huge
Kot
wife
sources
Musa
Haut
Ukraine
212
##rma
Spain
growing
Francesco
##rica
fana
LINE
##тов
UNESCO
moving
Middle
classic
jus
association
Pay
activity
Тя
Там
##pha
##бу
rates
Challenge
##phi
crime
Dream
sold
1905
370
164
oral
chocolate
agit
Hyundai
girls
##ут
Sean
dark
voice
тих
##TV
Index
Andreas
RD
efforts
тез
##CA
Rob
сезона
NC
Café
всей
давно
182
повторно
можем
Giovanni
individuals
##йки
Ole
многих
XVIII
2030
##ssi
пов
Deluxe
tags
Wasser
##ining
Arte
demo
НАТО
выше
Roll
ASV
FB
ер
Division
Aaron
поле
169
Level
1916
Mill
Бога
Carter
Peru
##CO
##чак
began
культуры
Mate
Colombia
Ron
Active
##GO
ig
##sos
challenge
families
Billy
marked
canal
Tutti
Mata
Ty
деятельности
pack
март
сая
Pred
description
систему
consulta
Building
output
татар
Gallery
##ческого
##чные
сети
Number
quote
Performance
цены
Smartphone
Lite
178
studies
района
##нат
одно
##ще
##teur
dot
statement
develop
effects
package
morali
veri
##lice
vice
177
##яти
Mega
##ческой
designer
##kg
personnel
translation
eat
Regional
LP
##ort
##uko
fruit
rapid
expected
##win
tried
Mare
maybe
##cz
##лось
aid
##ess
theme
1080
context
Help
340
дава
которую
correct
море
remove
сезон
desktop
Путин
Arabia
Philippines
none
devices
911
ей
##tr
использования
ситуации
administration
##WA
Comments
Work
ROM
nbsp
ipa
Александр
получения
##rou
начала
евро
171
sweet
HTTP
##ёт
##оор
2D
Cisco
argument
Тут
sofa
167
rom
работать
Lanka
gone
Advanced
Neil
responsible
ALL
APP
1300
модель
doctor
##чку
Cover
Content
##ика
rules
Ab
##DO
##mp
проблемы
недели
connect
traffic
Roberts
updated
Hitler
Where
Jerry
Shanghai
Studios
Margaret
Io
ЕУ
Elena
166
gre
##uf
290
internal
Али
ski
SRL
Carlo
fly
##hem
##gur
drink
комплекс
истории
Биз
significant
Tuesday
##vien
vy
##ям
income
310
demand
результате
Bernard
Шумо
bid
opinion
##тели
finally
Val
Official
wasn
отношение
##rant
sp
Maya
##lee
Electric
teams
##enti
##Ä
physical
allo
blu
opening
IC
TAG
Links
Choice
settings
Event
PO
##ине
##sation
Нью
##LL
тело
##ume
weather
Cache
Sr
##data
prime
участь
Hugo
Fan
numbers
знак
massage
##stein
Fr
planet
команда
##ones
##tom
лечения
SAD
Popular
welcome
Cal
inferior
Zero
совсем
книга
ATM
##ення
spend
Татарстан
235
Фото
##seen
Pat
месяц
##ровать
##kit
Graham
wonderful
Phil
colors
saying
август
Industrial
Urban
##rai
##kes
док
Shah
форме
нашего
Menu
billion
Tre
кол
txt
##нки
##dale
##вого
towards
206
Match
NI
strategy
sue
##tter
owner
PLUS
кв
CBD
Trend
orders
1911
188
Bin
poster
audience
Stefan
заказа
Hope
##tine
##ote
##вая
dollars
возможности
upload
spent
notice
lots
##haus
Rick
passion
##ады
##sc
Article
значение
##ged
independent
Warren
##rul
Vitamin
outdoor
difference
сар
##lane
Irish
##вен
##ения
##hale
свого
rs
доставки
workshop
албан
Australian
208
Stati
Catherine
Що
Front
modal
Af
##tage
Teatro
##ому
##рга
##heim
##кого
##eron
Hamburg
switch
Pod
Rafael
Congress
стать
магазина
Mina
successful
largest
кожи
сен
JA
всяка
edit
Customer
TD
##ось
партия
карап
developed
##but
Ubuntu
Cameron
Uni
Alfred
наше
Josh
porno
гар
king
Buenos
Table
Children
Trail
Polo
Each
##kot
leg
Sandra
##bol
PH
Tools
174
Baker
copyright
Col
Thursday
##uba
8000
сили
зависимости
222
trans
##ес
##вся
304
Dame
такая
Иван
Спасибо
JE
import
arti
Tad
Glass
##m2
campus
173
rural
PlayStation
##pet
listed
Bangladesh
Mobil
TS
разом
своя
characters
orange
Robinson
GA
businesses
##uit
доставка
loved
Wolf
considered
ave
Gas
орган
Every
ие
720p
selection
MBA
Justice
здоров
fee
RC
##band
fees
##yana
##usa
##kis
salt
##fra
exactly
соответствии
##ший
самые
##дык
Speed
CI
Polska
XIII
види
Lenovo
yes
##лат
Mun
prior
Franklin
179
эта
Philippe
характер
##TI
Например
формы
##lde
path
##zing
204
203
Wednesday
dea
listing
handler
##care
Leonardo
##bak
Living
Taiwan
Coffee
Executive
BY
sexy
##chu
Valencia
##жу
MR
disease
народа
Jobs
##чная
Wisconsin
Theatre
прямо
ове
cards
Мне
played
definitely
средство
##ingu
Xi
авто
Poker
##bed
anar
состав
##sio
Quran
Dei
Wy
holiday
shown
1400
Stanley
##sam
##ета
beyond
##dae
KE
Есть
самого
##alt
purposes
forces
##ада
heavy
составляет
Sei
fair
bottom
Army
1908
Wright
материалы
183
cent
Frankfurt
управления
accident
бит
##ein
moments
Tar
187
##тно
lines
выбрать
цвета
participants
гр
Vintage
Budapest
##ческих
Bed
west
Stewart
##pie
joy
benefit
выбор
Cancel
wind
Extra
Ay
усе
##bon
##bt
метод
proper
##bos
object
Princess
Four
dance
TX
##лын
189
шта
Marcus
##ery
образование
square
cast
Romantic
Aus
##of
arrive
##ssen
Nepal
Cinema
##IC
##aria
##ides
claim
english
Gel
##ory
aren
##dere
Hilton
Products
##dai
Harvard
##вий
##rre
Campbell
глава
Тие
##ned
##gle
understanding
Очень
##сез
Photoshop
##нски
Professor
Steam
7000
##llen
Dj
intr
KM
holo
сказать
pur
Vision
Visual
VW
каждого
града
Garcia
##лей
##ях
Moscow
зам
Conference
XIV
Detroit
HS
Компания
группы
Lac
Fit
##ST
##vor
ла
Comme
guy
stal
destination
stars
275
Nicolas
Rank
contains
таки
безопасности
belli
Yamaha
tube
Коли
Philips
Panel
happen
##pos
planeta
Marshall
Алматы
Praha
ate
сада
##rali
##und
Zone
1700
Palm
names
181
другим
184
heat
##dite
Cari
##kir
prea
length
CF
push
Hard
rare
associated
cd
wood
Direct
negli
garden
Images
wants
Аммо
жени
secure
Rom
reports
BR
Или
Bull
properties
века
father
основе
долго
##lica
Paolo
##ines
Украина
##plan
Leon
дена
alone
Deutsche
##pot
Таким
##льный
AF
Lab
expect
##чным
XML
##tho
городе
Gaming
Cam
carbon
##ome
Dublin
PL
##лена
1100
Ва
затем
##ани
schools
##uya
Three
grow
##ческие
boot
банка
##ization
кара
2x
Kata
Photos
Ahmed
Novo
Grey
##аж
Afghanistan
Micro
Chief
Books
##чне
Sp
Kings
Bosch
##нный
Republic
plate
variant
##rach
второй
employees
foot
политика
iphone
imi
Friends
проти
##ение
стан
UI
Можно
tw
VM
абсолютно
dream
Pool
##for
299
Iraq
Berg
школе
steps
Boris
Mass
Select
protect
##tivi
connection
список
##dot
Можете
Jerusalem
роки
1907
##eye
##тап
немного
##ME
offering
haute
##over
мали
ниже
Pet
dialog
##ючи
Ph
Beijing
operator
LAN
198
##bs
Location
rei
Battle
##ез
pilot
Tribunal
Syria
elegant
##hip
##nad
brought
trust
Murray
Petra
##ized
##эл
##sts
##fica
история
evidence
museum
imagine
scale
century
records
город
край
технологии
Tie
True
nor
##гон
separate
Moto
##light
##bility
pink
##ног
##12
CSS
Cash
толку
##15
opportunities
changed
aspect
##вания
Lue
зависит
Его
##eh
probable
325
thank
library
автор
193
207
states
FOR
нельзя
goals
Бир
аммо
bot
##rei
интерес
##сэн
Knight
бай
##borg
##rm
false
Mens
Focus
##зм
211
registered
Tree
usage
turned
tests
##oz
Sim
1906
сильно
Kent
Vancouver
##iros
Ac
Jong
comfortable
Laptop
selected
##нных
потребно
Rama
##indo
должно
##loa
cake
Secret
sets
##bane
sec
пас
Tommy
discussion
aro
teach
##ray
Eastern
Join
##tag
доступ
EPA
Dennis
formal
##уп
Evo
телефона
Temple
301
##lot
##чин
товаров
воду
eBay
Adrian
UPS
##ction
CAS
множество
announced
мог
wine
CAD
##рт
Сол
plugin
##sma
245
статус
Unis
186
offered
knew
##LO
##гыз
Centrum
Sale
##hme
времена
church
fiscal
Franco
##Х
дод
##ето
WWE
Km
Sweet
хэд
191
München
##чке
##mera
##фи
regarding
##site
##KE
technologies
##wang
NJ
BP
fields
##ления
##kla
stem
Много
thread
cars
standards
##nger
exclusive
AIDS
##dha
loan
Engine
Sub
Amb
активно
##meter
reference
##name
Because
ride
dev
OH
Здесь
##tions
документ
Helen
Bowl
Morris
Thu
Bond
FAQ
Санкт
##lov
##сия
Very
Alaska
Istanbul
##ving
##ског
1890
##pes
##say
Madison
знаю
0000
думаю
Punta
glo
страница
AFP
pattern
alias
196
Craig
##жен
Posts
advertising
##ики
Vor
immediately
extrem
CCD
Chance
RNA
engagement
##скай
Дали
accept
Government
processing
Larry
##ggi
##ration
уровень
asia
McDonald
Sila
Connect
##лин
Vam
Eye
##TION
довольно
nt
службы
самый
Bari
Shin
reasons
cf
ship
powerful
216
beginning
##ghi
speak
##аны
лично
школы
карта
Expo
након
cold
кори
avoid
Perry
attack
LTE
FR
##ax
Gan
Tool
Future
Britain
Dal
Германия
KO
Interview
bases
lab
тебя
Bang
лв
према
Paula
##lyn
##дон
Трамп
##nol
##ьного
##ís
wear
spin
instant
Abs
##NI
меньше
exchange
тора
Deep
##эг
testi
exact
although
innovation
Cleveland
Editor
сможете
району
Сега
##сты
##vate
progress
gra
Cultural
load
##овать
Atlantic
Wan
##bie
232
middle
justice
straight
ail
kn
Nak
боз
essential
Death
animals
dates
Aires
мала
Pixel
отношения
Elite
##ace
OFF
##щий
##eria
universal
танд
ahead
mega
Print
своими
##ions
actor
производства
1903
Boeing
EK
manner
Win
procedure
Greg
##oga
##ewe
Яны
easier
SF
generation
Україна
вида
##zek
209
кафе
Ser
Perfect
Terry
okay
раза
named
Jamie
этому
Serbia
##oc
CRM
Apartment
1909
Сергей
сказал
##eas
vitro
значит
нем
Small
##ovo
управление
##bala
Learning
##лый
Освен
himself
Beta
provider
##hau
truly
Desktop
##чат
soy
Uno
Pearl
TB
##bay
программы
UFC
resort
journey
точка
носи
CR
NOT
440
##vice
CH
##zny
самое
Canyon
##hun
Alliance
pose
XVII
Spanish
LI
Talk
президента
##room
NHL
Language
Stan
Profile
Asian
Map
china
техника
##SI
Technologies
FL
Mitchell
Doctor
driving
Tempo
##laan
Сан
машин
UU
Fine
##LI
cheap
ус
денег
жас
хам
##ней
Right
##GE
vital
addresses
sleep
oven
##ual
Race
Ads
suit
##pera
Azure
##view
Fantasy
Omega
alcohol
##dle
tutorial
##uva
Spider
Baca
месяца
Nah
##чны
знам
Tal
operation
##вам
##long
1901
карата
IQ
angel
##ук
##VE
##рам
##cker
сколько
Carmen
leaders
сказав
##гч
2025
Tiger
##rium
seven
garage
1880
777
далее
award
Ethiopia
military
високо
mono
##bro
##ress
Sweden
depi
бери
сот
даа
фотографии
ns
##try
helping
talking
Masa
reali
обычно
успешно
помош
prepare
нее
транспорт
никогда
serious
##кен
debut
месяцев
Vera
доме
Jie
inclusive
MAC
##щите
Пры
Този
Zimbabwe
fight
RA
##рани
RPG
machines
Agency
##ZA
useful
поможет
##fort
ema
однако
Days
advanced
Block
furniture
Bog
husband
##isation
OP
##bek
Eli
deliver
Custom
counter
ads
говорить
Barry
Gall
Finance
##шен
tone
produced
Яна
tennis
некоторые
busy
950
265
Vir
PARA
##hing
силу
поскольку
Теперь
definition
existing
моя
Client
Cool
говорит
distribution
Norman
##шь
Drama
##бен
##60
NYSE
appear
##ū
flow
Klein
стана
375
Mission
seat
##nten
##ß
Portland
rat
charges
##bury
##inger
Empire
Keep
Watson
Vil
Dos
##enne
результат
experienced
Championship
Благодаря
PhD
movies
##ья
##gate
manage
Greek
августа
Cambodia
Genesis
марта
села
tune
##ист
степени
электр
##ети
Suzuki
##бай
213
AZ
##sty
##fier
224
dead
##gina
Verde
известно
A2
Seo
серед
тест
действие
##инг
fas
innovative
Another
prevent
минута
##ыс
##ческий
зах
рост
sorry
Scotland
accord
Denver
##дор
роботу
Blues
template
importance
души
Dy
lecture
VAT
Planet
##ап
Message
##кова
##ats
скачать
technical
##стве
##uki
Manhattan
allowed
организма
broker
тал
Rico
номи
gl
218
##dita
зад
##RY
Although
##шта
diesel
MV
deals
Wow
##IE
BN
школа
Rights
feat
223
Tea
##сна
SPA
##ello
testing
1904
##ките
договора
dedicated
пару
##vka
Alta
##osta
вай
CBS
##leni
##bert
Cola
accounts
##ders
Nevada
Lars
Guardian
сан
##овая
overall
ра
197
##fia
Quick
Jonas
##lap
таба
кам
##cken
maintenance
которым
Hija
Российской
причини
src
otherwise
##ота
##tili
Anton
##вав
##pada
Eco
направите
Application
##late
##pak
помощь
Sex
221
Salon
hire
214
3GP
annual
winning
хочу
Vas
пост
mass
кожа
идем
folder
##lene
Virtual
Collins
Kind
Ultimate
Error
чак
##tite
nearly
##ников
Vid
##без
upgrade
##ally
Basic
##11
##жно
##chy
194
адресу
pieces
lb
plena
Season
appropriate
policies
Monster
resource
Тому
PCR
arena
##hof
citi
Louise
Ego
районе
нами
Ти
Warner
вашего
stu
##нию
##ица
Сез
##скую
Solar
264
рок
DM
##нов
Ridge
##cies
Step
extension
NW
##лов
##rz
##щение
##cka
##ров
Before
nation
##01
Св
Toe
agents
##ага
Paper
kb
Fund
gent
##rol
предвид
бэ
thoughts
Joshua
Наш
fish
##lib
Medicine
religion
Lopez
brief
expression
очередь
Hem
##nais
recipe
reported
1870
иметь
Eden
Plant
##dest
Reading
##ье
ER
expertise
база
яму
fullt
##zation
Bobby
##фа
assistance
sor
##кий
JavaScript
##gram
Shell
##ене
##pho
430
##zzi
##ode
##UM
##gg
certainly
3500
Beautiful
IPv6
##bau
метр
lifestyle
документов
228
форми
LIVE
##pus
rooms
Keith
B1
electric
edge
stone
centres
Carol
delu
noon
элек
Ward
знаете
pace
Taxi
##nki
802
рад
MAX
Protection
Pocket
birthday
##sne
movement
##bah
##чих
Dutch
Five
Cristina
Moldova
Canadian
##эх
Cao
Ethernet
Subscribe
primary
##bis
Именно
Factory
вчера
integral
##лки
Wien
Policy
##ward
##льные
##кам
minus
##ван
нашу
Swift
217
booking
Wireless
gear
kz
Congo
##rau
Address
Clip
##llas
самой
становится
##ars
category
Ima
действительно
daughter
##MO
1a
канал
png
слово
##IO
Cum
plot
Sofia
##нем
Eh
sar
вместо
гуна
24h
Till
followed
станет
count
Lyrics
Pen
Claire
Tau
данный
##нае
Kali
власт
##овий
##gli
##лет
looked
провести
Canal
wild
Ellen
SO
##hir
highest
##лоо
##nii
equip
линии
День
Screen
selling
##hou
fela
rem
Domain
##DI
Ge
шест
Chen
EPS
##тел
##шим
##mena
Jau
EC
##сно
##ску
##ыми
cup
телефону
plasma
##тите
stream
##тва
Ajax
Kon
yahoo
Banco
kt
лиц
случи
##лай
Its
далеко
draw
MU
Cell
390
##iant
moved
Bag
inde
узнать
Федерации
makeup
helpful
Luxembourg
lose
##nay
Tv
3rd
Broadway
Bike
половина
Moda
ip
vehicles
парк
Ralph
##wing
##cke
PET
##ffer
shape
Swiss
способ
##рна
journal
песни
Allt
covered
Pani
Second
##кс
greater
pes
deem
##ew
sauna
функции
visible
##off
ряд
Lang
breakfast
##kut
couldn
##gens
словами
values
Kultur
ATP
520
##ству
бор
##льного
Arnold
Alto
ак
##ith
awesome
designs
##ffe
Coca
219
таза
мг
Student
током
Track
##чик
calls
flight
Designer
Turner
helped
dinner
##ята
512
##nera
##mah
society
уз
свят
Ari
Gruppe
adult
Zona
Due
случаях
Javier
Item
##rib
##worth
Nobel
Mid
рынке
226
Self
Vale
егер
HK
Stad
angle
изменения
experiences
##IR
survey
Captain
сад
adults
appeared
##uze
Tik
XXI
конкурс
##fur
продукции
##sem
Только
Formula
Spirit
Twin
бере
радио
##льная
Chapter
discuss
##ters
gaming
##тау
Montana
Hair
Roulette
Int
устройства
Residence
Woman
backup
##ское
Peak
Ker
##дам
##elli
##тна
231
Вие
Shenzhen
Fiat
Administration
BS
adidas
unes
pride
Mundo
##hand
##mur
valid
Эгер
Brothers
##сны
Yellow
желание
##down
whose
Vice
naming
##hur
particularly
трудно
extremely
edition
Nag
##hr
plug
slots
однос
BT
conference
Qatar
меню
##пе
куда
##cci
lyrics
msgid
express
##ics
Dual
одном
1902
quest
SAN
ил
mur
кыргыз
ваша
рядом
Почему
Mee
unsa
пор
WHO
сред
годы
##ици
##emi
hits
##цией
##udi
460
vine
ph
##este
ISIS
wonder
410
##film
dealer
активности
PU
consiste
Eagle
шу
масла
первых
Kam
forms
людям
mall
##chte
249
##доо
Kawasaki
Soul
333
Reserve
229
junior
FX
leth
Hold
##eld
Korean
rt
SV
NEWS
surprise
GSM
##ация
##xt
документи
GE
##ыз
##AH
TR
тему
slow
##айте
Наша
##eau
##not
Hostel
terror
##odi
##evi
##ющие
symbol
seconds
имам
Merkel
methods
##isto
happened
1895
Jeremy
сил
кар
ово
RI
Hallo
Arabic
##тык
сын
Simple
цвет
BTC
Nang
##nke
##ент
schedule
Франция
234
нд
Gesellschaft
##mark
impression
некоторых
вашу
##feld
##lea
233
305
dose
NT
courses
feu
medicine
Motel
##emo
Christine
AE
famous
Cole
Tours
HA
##lata
teacher
Bear
A3
227
снова
trial
finished
Navy
##tation
Campus
variable
##ура
315
lock
2560
Capsule
##кер
unless
delivered
Joel
phase
##овите
midi
economy
##yama
pair
tt
tumor
ке
Ты
apple
Masters
##лог
cycle
Woods
jet
established
родители
записи
3x
правда
Monica
HBO
brain
складу
наличии
Gray
Workshop
CMS
viral
Alter
Youth
Browse
propaganda
##izar
ваше
pere
SEC
Tin
cleaning
ТВ
ваши
tape
модел
##cza
increased
earlier
Panama
##Ц
Insurance
Xavier
##ень
placed
iCloud
sm
permis
конце
requires
хотите
компаний
Sophie
##дийн
vector
программа
zones
##льным
Finn
Sudan
порно
##ppe
Kuba
TC
##IL
Maison
carry
changing
BI
EF
Bere
flexible
Sedan
Ruth
карту
Bureau
##sna
null
##meli
акции
arma
Grill
buying
бизнеса
Hannah
306
##nata
peace
Range
##weg
wp
challenges
Xperia
Denis
чаще
sic
Nicholas
##бо
##vs
##gla
самостоятельно
Лондон
circuit
минь
цю
##ющих
##hold
DIN
##лэг
Lauren
видите
##lti
factors
subscribe
completed
passage
##ыш
Lounge
Laser
##raj
posting
influence
1898
справа
handling
##test
violence
##lma
##cle
m3
banner
dl
Nation
##uak
##80
Raymond
Otto
Через
critical
##nho
truth
##sim
Grove
Просто
##ND
закона
explore
##чко
##ple
лист
bill
ED
ясно
owners
relations
##bli
Experience
защита
склад
Window
кой
Нова
lack
##вме
NB
boom
получите
идет
##стю
##lau
1850
##гах
##ао
##gera
Pie
труда
Animal
Turkey
##лана
##rena
Quest
1896
NBC
концерт
Bonjour
layer
##work
Tra
Safety
имя
победа
Lion
thousands
accessible
During
electronic
Skin
Belle
Museo
Breakfast
##lys
##nha
segment
Kyle
данной
##lly
hara
ups
Parc
нибудь
##wd
DP
Mayor
##тун
waiting
According
##tang
##fication
##RS
Manual
##OM
Henri
Dus
leadership
вкус
MTV
Qur
органи
editorial
bureau
##point
##gra
Snow
сайд
Mint
говори
максимально
FIPS
AU
Астана
Has
sani
biggest
beer
Duo
tickets
entertainment
honor
Messenger
hp
Laurent
lift
статьи
Newton
##ology
Crown
1860
Sad
motion
Gay
notifications
##pal
Felix
Maha
##gn
terrain
Artist
##AD
SAS
##ree
sample
KS
stick
JR
##цев
achieve
repair
##дук
Gear
RGB
Mind
листа
Dok
ticket
Nathan
died
Burger
finding
seeing
##теля
Ol
990
##hos
войны
Volume
naturali
Study
нече
Create
машины
Kitchen
Cine
проведения
agency
attend
нескольких
1x
Option
дети
243
женщины
YOU
изображения
Partners
888
Grup
Mitsubishi
наличие
своем
Python
Isaac
chain
union
томе
Turbo
cn
blank
exercise
техники
министр
guest
285
239
propos
1899
Directory
##UR
fiction
Lia
центре
R2
GPU
Meter
##дик
Commerce
##bio
species
Julian
друге
640
ranking
older
reply
Hero
Looking
Led
prop
медицина
##nc
maintain
##cula
Committee
Zur
Перед
workers
Rei
evening
депутат
##ence
beat
LC
предлагает
##ься
Иако
254
##ировать
##тра
супер
Като
Florence
Москвы
##ities
##лата
GS
Sami
Motors
##рка
impossible
climate
Сейчас
Driver
Lloyd
##ved
##dno
##ratu
Comfort
pipe
Cet
Short
хотел
##gut
vb
wireless
female
LV
whatever
fail
401
LT
##won
гости
движения
HC
Fish
категории
##ller
252
boss
Wine
Blogger
retail
предмет
##Ф
Fest
##чните
##TON
SG
Birmingham
sender
EOS
brown
Apollo
Hudson
##ded
Motorola
emails
claims
specialist
watching
##uin
finance
вечер
слишком
##овете
communities
Login
walking
Omar
Holy
музей
247
##tya
Dili
funny
##wai
Investment
##pte
Boutique
Opel
identify
мерки
tire
##bor
Things
B2B
251
##бор
кроме
magic
poor
drugs
##pati
vertical
NYC
writer
silver
Salt
Spencer
instructions
guests
Gun
##жения
Иран
уровня
Lucky
клиентов
Nations
Generation
рано
ге
##чо
Tee
served
Ата
SH
используется
Markt
Lati
consumers
вось
Roland
fruits
gym
battery
мени
##kort
libera
sees
файл
Sao
Enjoy
лекар
##tasi
perform
рак
Mason
##dien
##дзе
closed
Alfa
кому
Boss
##ческая
Олон
Theater
labor
Culture
##аст
образ
Conte
Wind
##вно
Sh
302
Siri
Barack
тонна
teaching
Fel
свету
Lu
Rich
##нок
##nea
суда
fiber
510
Highway
##egi
##enta
##кай
оплаты
##ох
242
Татар
Jenny
publication
assurance
представляет
карты
conform
xml
img
##cek
Does
##дал
Lost
540
##льной
Wells
мати
Adidas
##чий
##чок
onto
Fisher
remain
##cut
versions
##еть
larger
##tten
##ьных
Mohammed
Rebecca
очи
conversation
organic
303
kept
DB
играть
автомобиль
constant
Рё
earth
Joy
приема
Petit
indem
hl
##yev
важна
##OL
Gal
материала
Diesel
##дно
область
task
locations
##вают
футбол
CEP
##16
Таа
Baltimore
rig
owned
plenty
успех
initial
##рон
competition
будете
##ngs
##тни
corporate
неща
другое
Gore
Liberty
luxe
##inte
Kunst
organizations
5mm
мнение
560
metall
Zimmer
Toy
assist
женщин
##вна
оборудования
##elor
нашим
238
mentioned
Chase
236
Cancer
continues
##льна
##pers
launch
##OK
plu
Adventure
Wo
Алла
holding
##зор
Stai
apartment
блок
Эта
примерно
shoes
mention
##cca
escala
Chevrolet
Admin
мама
документы
perhaps
showing
FI
иначе
1897
##its
Kurt
бюджет
Цена
dual
alarm
phi
Nexus
SMA
пакет
Shi
##TS
##лите
GDP
Mont
Джон
Mesa
област
##hn
задача
Virgin
совершенно
Bis
determine
Forbes
Berry
Jin
другом
Hos
BBQ
happens
wellness
nn
Ted
##тя
##стон
learned
центра
operating
Bas
согласно
число
особливо
Ea
DHL
##чески
passed
Dh
artists
##ьные
##tali
Ош
##ара
Еще
308
EMS
##щих
316
Fed
##MI
mile
##жан
##hod
decisions
##ible
proud
путем
237
Franz
Ghana
состояние
removed
faith
Sandy
brands
PCI
ERP
accurate
cafe
drum
Rover
##cono
license
##eme
##ход
ном
##рен
Panasonic
Soft
555
Walk
remote
необходимости
Route
Atlas
колко
Monitor
knows
состоянии
##нете
Valentine
strength
PK
пожалуйста
##sant
##лка
therapy
Сен
##uer
фильм
sand
##vela
mouse
Mano
retire
241
Vo
мере
IE
##рана
presented
stores
получил
Industry
Helsinki
Lama
отлично
Wedding
Ciudad
Mein
Filter
division
##put
дает
ETA
brings
совет
sauce
никто
Lot
Sciences
##ывать
south
Rica
dining
##oh
Oak
##omi
HI
cells
##шей
стран
##mic
serial
Kris
casual
ware
durable
знать
##fish
Bird
##эт
Siemens
BD
excited
regard
NU
erro
первую
##vir
gallery
B2
Никола
предложения
Mitte
spray
понад
coverage
Phillips
returned
воде
pha
tracks
PCB
aware
##ода
##mor
248
disc
sl
##ън
##ыл
Close
automatically
Италия
Six
##стей
издание
404
Ronald
проекти
PV
Views
Rating
Bryan
engineering
вполне
##him
Cohen
toilet
Author
plants
иногда
Yu
opt
Monaco
capacity
lie
Tata
resolution
Brad
Rogers
399
удар
fake
Ruby
##лэн
Lin
generally
bedroom
starts
causes
Hart
district
Ch
spirit
##arka
Blackjack
compared
RV
advantage
missing
gene
IM
##ores
Split
##зия
##phone
AAA
tradition
##vil
Terminal
##ists
##ович
Whether
ранее
ICT
интересно
республика
##хме
C4
promotion
router
adding
470
units
joint
Mb
неа
Brother
paste
sugar
устройство
Ninja
первого
автомобиля
Grund
##рда
народу
##ick
##гаар
Pete
Nikon
BV
Gaza
Mad
Ram
Wii
295
##pti
хабар
Viac
Avto
новой
порядке
##fil
##син
плюс
Sal
серии
Кто
##sent
truck
enable
Events
##IM
filled
intended
##cam
Montreal
рождения
Edit
##дна
nail
##lut
fantastic
##аль
socio
1888
поля
##rien
Assistant
eating
##vera
gif
jp
submit
keeping
urban
менин
##ским
Trek
combat
lap
граждан
Klaus
производи
Transfer
##щая
##cco
rap
завод
снимки
Автор
Tena
sinne
operations
corner
Buffalo
Fresh
trauma
говорят
sore
брат
torrent
каких
неделю
APA
shower
height
##swe
SW
данного
ана
Ion
pil
музыка
INC
Noi
ratio
MK
readers
intelligence
Parque
##mea
##щим
##rap
фирма
заявил
##uen
adapter
повинен
иска
##лаа
##MAN
Исто
Rice
уж
soul
Honor
244
магазине
sheet
##MP
##gam
дальше
##lant
command
##TY
becomes
Campo
дал
collaboration
делает
##vol
Bristol
Rau
Кыргызстан
предлага
особи
Жогорку
Construction
##gil
еш
Paradise
##bur
Sept
TN
##щей
Girona
cher
##лены
##ense
3a
##cite
##may
Miles
идеи
jar
absolute
##ька
семьи
##уда
bou
253
bars
собою
пут
Gloria
видов
vary
Their
island
Romeo
операции
##rine
CB
анализ
gala
aspects
пара
Patricia
Course
lovely
##cc
hall
1865
опыт
Noel
PG
MAN
ЗА
другими
layout
cart
тура
##vene
##ости
SIA
покупки
вести
sac
tracking
Nas
existence
осуществляется
laws
forget
Firenze
Qu
Украине
Igor
smile
goods
клас
Torre
1889
##ау
взять
пункт
Czech
Hunt
Blood
leads
DN
printer
Kraft
##ига
##sor
##mman
essay
пресс
Palma
##вата
312
##ening
использование
Pictures
Kindle
246
Ville
##ип
visitors
lay
Meyer
пише
женщина
basket
except
##RT
##uke
Oro
1893
практика
Owen
foreign
##ране
Hughes
Leave
directory
Guinea
первой
Electronics
постои
##щего
##шие
Cad
##vai
пол
RP
##щее
##нной
Todd
кожны
nuclear
яг
##ph
##rov
Which
pull
##йт
Hit
discount
##beli
Kat
##мон
пати
bought
scan
trends
квартиры
##yp
Josef
##shire
пути
inci
practices
Один
крови
connected
MacBook
мине
VAN
ref
маса
##сиз
console
##ncy
Tek
sounds
ООО
##news
уровне
руку
##noy
diploma
нито
JP
Columbus
словам
parameter
##bly
Gate
farm
Aurora
499
любого
прекрасно
Marcel
Michelin
##рин
##fied
будем
Bros
IF
##оос
##ога
##жки
##iens
теми
##лаш
Cel
gap
заболевания
любов
Platform
taxes
fuel
изделия
##star
Edwards
massive
контакт
facilities
CITY
1861
diameter
boys
##вих
focused
recommended
Hom
ам
питания
Asus
topics
cities
Summit
руками
Liu
партии
absolutely
товары
chart
##ьный
residents
Turkish
patch
1871
##ьная
gid
коса
Record
Ger
##von
пр
1891
##link
CN
Innovation
здоровья
Did
движение
требуется
Peace
Agent
##жна
##ава
fantasy
responsibility
чай
##вана
##KI
пар
Ideal
сайту
Jet
MW
1864
Starbucks
Listen
Скачать
setup
htm
Register
##100
сообщает
1894
opened
трех
ваших
Эти
therefore
Dil
суду
runs
export
##шни
affiliate
Vs
S1
положение
Khu
Под
##azi
recovery
##ее
keyboard
Hardware
периода
permission
eight
ds
проекту
##жы
sid
##овый
portfolio
omega
Николай
##xin
Сиз
spread
##рд
inspired
NON
##nico
530
architecture
1863
##eba
yellow
Zoom
полиция
##ште
##sca
дата
версия
сторону
agreement
##LY
Bol
хочет
apart
minor
##itra
Normal
##бер
Sue
container
##стан
защиты
различные
Peugeot
promote
Sasa
ново
Glasgow
AdSense
Pra
Нет
##eal
руках
Melissa
PLC
Mod
Цей
Heritage
##hes
невозможно
leaves
9000
Hu
fm
clubs
puzzle
Lotus
школу
характеристики
вашей
treat
WP
Modell
Ham
opposition
##rent
instance
opinions
Flat
GBP
Jou
одному
##еры
##ток
пространство
1885
1892
заяви
hub
создать
##ants
цене
пола
Studies
##AC
Jefferson
Coupe
ама
Circle
Electronic
1886
аа
Cherry
широко
Душанбе
becoming
disposition
другого
стоимости
Reader
##uel
Vos
Far
appears
Lil
PowerPoint
noto
IA
cheese
##70
Gift
##pol
сард
SB
Child
Button
##шли
програм
##мат
Lock
Strand
Cut
capable
Toni
HIGH
приложение
##wear
##top
js
разные
answers
seminar
##нуть
described
S3
NS
earn
components
вещества
mov
2023
1881
Deutsch
##ющий
Familia
##леге
преко
rise
кнопку
##18
portable
центру
Qo
mona
perspective
Ghost
НЕ
стил
Turismo
##гар
Corte
Airways
monthly
startup
ete
##аг
Doe
Pure
taste
последние
roller
##kha
waste
сям
Важно
developing
Аб
spiritual
Naha
likes
##fir
010
крем
##used
Казан
boat
начале
MKV
Hop
киши
1878
invite
501
Yemen
##000
quarter
Teen
Imperial
фонд
bloc
меры
flowers
##jia
Pavel
главное
##вые
radar
смета
можност
liked
Moses
Андрей
цела
##мый
##шат
минимум
идея
Nav
reti
wouldn
##дали
272
##ttes
native
engage
зона
reliable
OG
HDR
335
combination
Oy
brother
##шна
263
Buddha
##vent
Wu
Legal
TCP
чини
adventure
##INE
EB
rule
split
Friedrich
##maker
Phi
##32
versus
##nko
258
guess
компьютер
nar
Tor
##FA
##post
returns
количества
Rey
DATE
630
большое
Folk
часта
Ace
существует
создания
Still
PI
election
skill
премьер
NFC
доктор
образования
##жат
##фт
среда
бонус
##шего
Got
игри
ответ
leaving
##щие
##рган
##bone
##lock
правил
BlackBerry
##hai
##жка
##lic
Try
##нет
262
Previous
collect
компани
remains
detailed
дейт
Christina
FE
exciting
Never
Memory
Stella
relax
Mazda
##nate
Mozilla
любом
administrative
db
реклама
C1
Visit
региона
reset
##fire
managed
zoom
Morning
отношении
##esse
##цем
java
пута
Israeli
Infos
shares
##шая
VN
##ческое
tales
Dortmund
сказала
Know
##ены
установки
##ову
Maurice
Bel
Адам
##TH
уран
рада
drag
##овски
worry
##wski
##ures
мага
##AP
##rage
punct
##ьно
sava
цим
powder
Outdoor
##adda
425
1848
##гез
##oms
такую
signed
RH
##лем
ASUS
swa
Maybe
Cruise
branch
BIOS
regime
подходит
равно
incident
контроль
Freedom
внутри
Viktor
Officer
skip
автомобили
##шт
letters
Vivo
##ият
caused
##mot
examples
##ано
Glas
prepared
##rich
Mao
Recovery
##cular
жаман
mn
Medicare
BTS
##вар
ingredients
##IK
Косово
funds
сумму
eco
Fill
Ro
Mills
IRS
drift
investor
R1
Petro
##hotel
##lies
вокруг
##mani
snow
могла
580
Works
волос
##lih
помочь
июля
Bai
Zhang
020
ferro
##уна
месту
PF
paint
chips
##iat
##row
Piano
метро
спасибо
lens
efficient
##оли
S2
Совет
##shin
##SS
Expert
##що
раньше
##zzo
fabric
сто
##чной
вул
Weber
Lietuva
participation
ара
suggest
307
##тора
целом
Wellness
parent
fixed
##ических
660
thus
Stage
keen
288
323
markets
##yy
trim
emergency
malware
ill
490
##баев
клуба
Cr
##eis
Foster
Gates
Bologna
посмотреть
##овым
поверхности
panorama
324
Crazy
чл
Bradley
wheel
##SO
возраст
##лять
Hub
##katu
registration
standing
SU
Apache
MMA
гостей
##лон
вся
liberal
KG
Catholic
V8
ura
##UN
##ади
##ln
Ste
node
данном
1882
##zhou
257
4th
Rocky
311
##лом
dental
contain
approved
1887
Sans
VE
сервис
##cit
##овки
зор
supports
Його
Lucia
боль
##вает
SPD
Wifi
assume
##ром
external
MIT
summa
1862
данным
Где
##bina
Pana
345
T2
четыре
1884
##сии
степен
##stic
continued
patio
261
Bass
Ski
Gus
279
Acer
Blanc
чуть
Clean
Pane
Edinburgh
чему
married
925
Licht
Rue
border
цени
Alma
удобно
Pole
Sharon
371
зависи
амаль
draws
i5
mostly
генерал
Каждый
marriage
лицо
Rossi
Sat
##fon
verse
Weekend
Production
##лади
##ации
franchise
Tube
Storm
Pol
Budget
сезоне
##Ж
помогает
smaller
Ведь
battle
Конечно
голову
speech
Branch
##чена
новую
сви
каждой
байр
Китай
Бишкек
##hane
##tino
Organisation
Jung
268
##тку
LOS
Пловдив
chair
toward
FF
Olympic
Rus
##чну
599
Gardens
##оз
целью
голова
Азия
620
Cannes
reta
Both
##OP
NASDAQ
273
coin
вале
рака
клетки
##sey
Boulevard
##тты
Даже
enjoyed
applied
advance
##pta
##tsu
north
##rag
drivers
tribunal
breed
продуктов
##law
Stuart
covers
1883
##TM
lands
Figure
##card
Logan
##bridge
форум
convert
##onia
LIMITED
##tol
SAT
Poland
supported
killed
TU
##nier
странице
Fu
##sso
Mother
Ove
installed
##anto
Communications
Wes
рук
обучение
Duty
Mira
replace
FTP
clar
compatible
июня
width
Dress
Reed
имени
##тук
NL
Bailey
##dium
Res
Paypal
680
##шно
##hole
повод
sister
department
materiali
Concert
Georges
придется
кад
##21
Mos
##rki
##лиги
marine
relationships
DD
269
bathroom
Candy
всяко
pers
elite
Isi
##hua
shirts
guarantee
Storage
majority
##bani
##чено
Hau
SOS
Bao
Kosovo
attempt
предприятия
Dim
CL
##рах
sessions
отдыха
##терге
2050
boas
Retro
##ич
anywhere
поки
Xe
Hip
codes
##оны
Olivier
##ogo
dB
array
процессе
313
Luxury
Colin
##нного
детали
321
criminal
процедура
Common
##лим
chances
кала
Julio
arc
Kid
##hani
##ood
Amber
##uren
##rig
airport
мол
322
номера
##телей
Discovery
259
Supreme
Streaming
##hid
##ични
Target
RFID
Gol
##load
##zz
Robot
amino
##PS
266
##fest
define
пользователей
Сите
процент
intervention
Wave
парламент
tall
mountain
cutting
##пы
виду
Slim
Penn
##кую
pants
##тата
1876
colour
##ола
Century
Liv
sky
SEM
##ений
Hack
Nielsen
##ozi
Deal
риск
людьми
##stro
прием
spill
DIE
Ala
##qui
Jer
##II
ended
камера
органов
разбира
##кая
хоть
birth
##Á
UA
Tuo
услови
##liti
Suisse
##oza
1o
prove
##очки
##hm
значительно
##дап
##code
##льний
encourage
Vodafone
Boot
##euse
##ость
##дат
##вни
1830
фаза
##IP
Inte
##cate
Round
##рите
##ьной
calling
WE
lung
Tennis
Stanford
Bara
PBS
увек
часам
энд
##bing
Netherlands
Ant
570
Norway
##рати
##cast
##дэг
discover
Trainer
##mita
355
gender
тик
##ула
##scu
featuring
Sel
Ни
продукта
hole
горе
267
##jit
##bud
ары
##тура
##ична
тур
properly
сок
Тези
жители
Would
##рот
Rex
OM
Sand
Modi
Eve
depending
##чев
##енко
##ане
стол
ситуация
Bloomberg
део
##News
slim
iron
##yam
NHS
PER
Iris
injury
##chan
Plano
кожного
monitoring
прес
wikipedia
shooting
Pins
Aqua
ONLINE
281
spare
Angola
Seal
Bulgaria
Rad
##gno
shift
institutions
##ğ
##rch
пять
infrastructure
bro
HDD
VP
1875
IPS
##sad
настоящее
способом
Amor
failed
Tara
сабе
ends
##cala
Йорк
Kara
##fat
требует
Using
##olt
##хэн
исключительно
Сайт
APC
Shift
речи
UAE
версии
##ems
presentation
Bra
Delivery
##лери
Beatles
хэт
STRONG
##NS
кожу
committed
Safe
gate
айыл
Wax
##нс
explain
Greece
ESPN
Related
Ash
##iba
expensive
##rene
боли
Simone
facility
стиль
Kane
sti
RJ
Stream
rain
artificial
Halo
##BO
фон
Herman
Virus
mood
prison
ADHD
##dorf
faster
performances
принцип
##iq
Derby
hobby
##dali
война
Bamboo
MasterCard
consumer
##INA
trees
12V
xxx
##ents
teachers
1879
Walking
##мент
кола
Airbus
Kar
##лений
wow
Upper
describe
OLED
lean
дор
Convention
rip
cabinet
rar
NP
situations
структура
##play
тавр
##front
Rolling
Egypt
serving
putting
помещения
улице
населения
1840
horror
Chanel
guitar
Sheikh
functions
ия
##vista
##цата
фактор
##жение
сом
##rme
##мак
liber
Ово
278
Када
##чную
##рования
порядок
##аз
286
276
деб
##лаж
Stay
влади
##зии
##our
вещи
Kenneth
##бат
Venezia
relief
clearly
##чай
Jeffrey
мебели
января
sc
GOOGLE
ум
Два
Sanchez
Tank
чувство
дам
Marx
PNG
##нэ
##ёр
кофе
Mirror
Holdings
##lini
university
BO
S8
stadium
Luc
##burn
обратно
basketball
UAB
manufacturer
Homepage
##лива
Hindu
##ио
Theme
IPO
Industries
причин
LEGO
бр
##ятся
385
жить
anal
Lou
Bing
##vant
##chaft
random
вероятно
Venus
##eus
октября
##рки
appreciate
1A
CCTV
Ер
309
название
purchased
despite
##ece
meant
presence
##чан
rage
cocktail
delicious
ходе
продажу
Fax
modules
ласка
смотреть
graves
Juda
Pub
tester
##жни
Unter
Rush
submitted
адреса
##щения
##stel
Neue
Clear
CCM
firmware
executive
providers
factory
представители
##рады
##ично
Said
leather
Rouge
NH
Rangers
RO
405
Heights
марки
##vale
Trans
Password
зеро
Kiev
monster
Guatemala
tp
Вай
Intelligence
Mul
понять
facto
##лор
##инин
сигнал
Wonder
##лив
апреля
identity
lady
состоит
inches
powered
Pages
##see
ML
Property
asking
позволит
Xin
##мин
##oen
tons
rep
##вай
271
luxury
freedom
Neo
wire
Label
##lm
продаж
GTX
Lago
##heet
возраста
##так
включая
Straße
outfit
shell
Legend
Многие
мои
пройти
##ческа
manufacturers
##vili
##ght
##чите
##rid
chicken
SIC
milk
фоне
##kra
карт
Haven
силы
20000
продукты
Talent
##вод
квартиру
сина
spending
FN
catch
hell
рецепт
Herr
##ины
Mak
##cum
Revolution
Markus
escape
##sele
coli
директора
totally
Resources
Tem
GR
delete
foundation
Sullivan
quotes
Бер
yard
Independent
##из
ties
Mila
Seven
1868
предложение
тиз
signs
stroke
concrete
joined
##apa
Elo
органы
Balance
##blad
BK
282
##vod
##ated
realize
raised
9001
styles
505
confidence
автобус
previously
##eco
##ает
доби
Herbert
Downtown
arms
Triple
##toi
Baku
##dian
competitive
личности
режиме
Early
Lara
##BE
##ём
mou
класс
применения
велика
ram
Spor
Clarke
Soccer
гал
##Ы
зрения
Stories
DT
Более
dogs
007
speaker
простор
Americans
educational
1867
exposition
проводить
Пред
Rainbow
336
##ьте
##ridge
broken
статье
Munich
hearing
Disa
String
##kop
Hang
##boy
risks
Islamic
##vita
Armstrong
##хаа
Clinic
Ine
Petersburg
##nova
instruments
Seoul
287
Settings
материали
Corporate
дати
Sonic
Alain
1877
cooking
Tras
folks
Wet
intra
ade
UC
лева
Ota
television
Dem
системе
##dze
Universe
##sum
BM
314
HPV
дерева
Вашингтон
kid
##world
featured
задачи
GIF
##CK
##TER
combined
##Hz
signature
организация
нека
Beer
Results
bear
Sigma
610
strategies
рух
##iano
nine
worldwide
##ml
сала
opens
Mora
seas
##vole
##тери
seeking
Authority
глаза
Bit
Канада
Pascal
painting
Ак
##lain
002
river
Staff
processes
Реал
Those
##gene
##sco
Мария
Pot
Dick
Gala
319
lights
salad
notebook
Shipping
Einstein
patent
##иться
недавно
##рек
EV
lane
trouble
##rr
Belt
метра
Ellis
Fortune
bv
##lement
лидер
Доставка
диск
дин
herbal
affect
##MB
новости
mart
##вае
##hit
##ating
##лук
Labs
##dry
##lean
Associates
Powell
##ального
##atie
Elisabeth
Avi
Horse
##dong
позиции
960
Programme
speaking
набор
мастер
affordable
figures
crazy
Carta
##ink
283
Valle
водой
хэл
Dodge
рассказал
storm
falls
технология
measure
sitting
Ng
officer
Darwin
##pool
274
##nces
блог
эд
communications
поне
procedura
1872
Nato
static
Denmark
Br
часом
Tomas
configuration
payments
высокой
Poste
##ческую
Publishing
Picture
службу
##cial
##iser
apk
T1
EI
Hugh
готов
Fischer
Norwegian
chief
Equipment
##lls
beg
dvi
277
##чить
считается
illegal
подарок
##aca
методи
318
reader
директоры
##mne
##тесь
##нная
Georg
deh
IKEA
##зации
Surface
Stefano
284
весьма
automobile
##том
feels
Bennett
##тво
секс
уг
vc
приобрести
concerns
##чь
GC
акт
Titan
##ического
dj
##lation
Lea
MX
fallen
видно
lounge
i7
intense
Motion
сектор
##ois
##жать
Interior
##mont
Laguna
B12
##чид
B6
оборудование
##sci
готовы
tend
##stone
slightly
##assa
Platinum
Avant
Holding
##шку
##дите
Вами
##рует
сообщения
##вается
Cold
науки
##02
Fusion
##ении
содержит
mask
numerous
C3
DOS
reached
Corps
kick
секунд
миллиард
##aim
Gateway
transparent
seek
patria
бес
конца
##tah
LO
##90
1873
5cm
tl
##nee
Cable
Ena
housing
RX
MVP
обеспечивает
specifically
##дах
inscription
tor
справи
USER
suitable
##ью
##88
ASEAN
##mica
commission
шар
Новости
зан
625
hosted
grant
Abstract
pump
##uis
theory
##об
##vie
культури
##onit
участников
Thor
##выя
Frederick
applicable
Viva
жителей
ourselves
зато
недела
m²
costi
HT
GROUP
Erasmus
основном
##гер
Rai
POS
##14
Playa
##няя
rental
кажется
011
##ull
departe
337
увидеть
##лении
pla
##bera
##рь
raise
частности
IG
289
##cel
Rugby
accessories
racing
##стер
прежде
creation
typically
лучших
SET
мини
academic
ноги
Files
neat
conversion
compare
##wb
Panorama
помощ
failure
любых
boost
Михаил
сума
##зна
размера
Levi
##quer
тон
чек
weekly
sponsor
meal
duty
presiden
люблю
СМИ
meters
UL
болезни
presents
°F
##ыла
Harper
veteran
Marriott
##itz
##lera
mails
##ливо
Trip
##colo
Ask
muscle
aim
greatest
495
Icon
Monde
##ические
##ugh
##mpo
сфере
размере
Усе
##pre
таке
flag
##І
##nco
funding
Give
mining
KL
OU
##ock
PB
##лага
##sil
Andersen
comprehensive
Soviet
maps
Better
Male
обладает
eventually
Moi
ребенок
##cent
##moni
Porter
100000
##нным
RR
developer
##ря
##MS
##bag
juice
Ramon
pastor
Tur
Shadow
saving
shoot
Palmer
Ter
298
dc
Александра
totali
Ernst
##ьную
Students
ДТП
EX
изображение
Simba
##system
JPG
получили
revenue
Дмитрий
Into
choices
бори
launched
359
modes
##лох
343
Ким
Mau
temp
правят
используют
Piazza
таком
Domino
telling
Tao
##tale
AH
MY
habitual
Doug
Found
wc
эди
smooth
Eagles
Proto
349
##рад
##шти
4500
##ляет
Champion
Vienna
Notes
workshops
Sugar
Olga
##cou
1874
trail
978
растения
Барселона
Варна
1866
737
293
##EE
winner
клиента
column
Scottish
Stat
politics
победи
Хотя
317
Bona
hidden
326
1869
лек
audit
##лас
основу
продажи
##ely
##жные
XXL
Подробнее
conflict
Bare
legali
Bab
Handy
##rst
Lego
297
receiving
бою
Agenda
Duncan
##beri
##center
thema
регион
##rese
Glenn
manufacturing
328
GST
нарушения
CSV
finali
метров
Schneider
##ится
такими
govern
Value
Natura
surgery
Kiss
historical
означает
Orchestra
fb
SSB
humans
нашли
государства
сможет
Анда
##DC
##riti
душа
Наши
ast
Gregory
rode
vt
препарат
Granada
##ари
insulin
жаль
##rino
Porta
декабря
cv
хороший
Chip
##нти
ру
едва
processed
##how
##dri
increasing
developers
тепер
бет
##рно
Puzzle
Chang
fax
Sophia
получать
##tain
хотели
##ств
interests
##dl
##ash
Carbon
352
415
ас
visiting
##oki
##ким
впервые
##logo
lover
##hra
##рийн
pixel
Wilhelm
##UL
robots
своему
wave
403
Echo
MySQL
turbo
Loan
саен
degrees
Ante
TK
##sler
Бас
принимать
LR
extreme
Uruguay
Films
Epic
awake
##cta
получи
Pine
Escape
pause
transition
театр
##лыг
удалось
##даж
initiative
##uch
Maker
услуга
abuse
тренер
билет
lamp
Ses
Leader
Offer
##rke
environmental
Может
bits
Medium
##dari
crash
Flora
рынка
foods
allowing
IOS
##ину
costume
proof
делу
##лено
stated
##бата
живее
introduce
VAR
Lim
availability
exam
Earl
Shield
##nner
долларов
afternoon
Marathon
действий
Meet
Kau
Mus
Converter
Wiki
Consulting
DVB
ответственности
##vers
##oss
338
D1
##dog
OD
Nazi
дух
##graphy
KI
Guard
depth
jack
296
lemon
331
##logical
класса
##mol
Cars
##RD
##ogi
Toledo
##жена
Remote
defined
luck
##mari
760
##25
confirm
Fin
div
1857
формата
positions
moon
##AK
##сни
Dee
Борис
saved
сроки
отзывы
##rc
##HO
сложно
LOVE
UM
294
Montgomery
emotional
Уг
Cincinnati
нави
Beyond
дороги
Infinity
эффект
типу
performed
avi
usb
хочется
##тика
##кие
Новый
rust
Comics
Fri
##away
обратиться
Mans
Нам
##hor
subscription
kill
суммы
доведе
##sol
##pay
##теп
##нно
Harbor
BIG
любое
Release
Hybrid
донесе
памяти
illum
Glen
тонн
##EC
шлях
##ури
первые
всему
##ону
##ливи
BG
##ирани
Laden
медиуми
upcoming
Fly
seemed
charged
Half
Think
автора
##xia
Hui
Bee
##cine
##HI
Corner
SPF
bright
Ton
penal
##wit
showed
programmer
resistance
prefer
Command
Испания
Stick
Perez
Through
лига
KU
принять
качан
Circuit
albums
организм
остане
базе
DAP
Ri
##нал
ач
##тельный
292
Julius
Cele
M1
DLL
installer
##45
bringing
egg
absence
ff
Jeep
Being
A5
AIR
OL
##юсь
Alternative
programmes
animation
начать
Vega
цену
решили
##tian
Again
Terre
Елена
Охрид
WLAN
Continental
случаев
Marin
sentiment
Blair
EST
ACT
tours
slide
toll
errors
forums
doors
venue
291
GD
Том
заявление
Павел
Tp
Calvin
grill
respond
sizes
Yves
добавить
##AY
игре
334
tells
accepted
Curtis
электронной
inc
Африка
Friedman
locali
бывает
Spot
O2
Jewish
##º
Mena
supporting
Rasa
##nov
##ised
hero
чо
S7
MLS
ls
Пас
hundreds
Stein
europa
Palazzo
fx
russian
Lower
##рия
училище
влияние
deck
depo
Father
plane
officials
Kurs
E3
Train
брой
Fiber
путь
pam
ETF
parallel
##alis
Belgium
Pick
##гэн
Everything
Leone
труд
стандарт
##nky
##яи
M2
ART
Три
балки
##chas
##льны
transmission
Terms
youth
lest
EY
Administrator
commence
комп
##ьних
##lings
332
organi
Choose
Tax
confirmation
Rep
##шла
MDF
##END
команды
##тельно
aros
exception
UFO
Tres
Globe
Ye
395
работают
AJ
INFO
LOL
Тогда
Photography
стану
касается
##леп
Bean
Heat
##sport
нешта
Harbour
Evil
##леген
виды
Harley
525
magni
##tici
сожалению
packaging
050
usual
Люди
comedy
Davidson
county
офис
Rede
начало
Pension
portion
590
##ания
банки
Panda
Pere
pres
Definition
дене
Say
chrome
Beverly
##гин
miti
stands
знает
##abo
##col
##лым
province
whom
Factor
операция
categories
##nor
##юк
##sala
такси
IEC
##иши
refund
линия
всеми
##rish
Кара
Tito
##SON
Stress
1859
следующие
Truck
Economic
permit
Developer
числа
327
церкви
resp
##ало
кандидат
329
Heroes
##uc
##igita
##PE
forever
crew
lived
recipes
##scher
свята
amateur
##bl
Switzerland
cure
##нска
делают
Chiesa
скорее
358
PSA
плати
чувства
Европе
кухня
merge
electoral
gambling
первом
Eur
##лина
PS3
##ест
Giorgio
##sua
Complete
Телефон
улица
ocean
driven
2400
Klima
Grupa
behavior
Ready
##жный
Ел
##кор
widget
моря
singles
Initiative
plays
ткани
##рай
##эм
##tail
Ranch
arrived
Тем
Sta
##cil
Republican
Gang
рода
Nic
##rf
##here
##tog
CDC
sci
protest
Hampton
новом
attacks
talks
##hill
ВИДЕО
seller
св
животных
crucial
рекомендуется
pit
config
dro
342
gt
breaking
##horn
разговор
cant
Section
мест
Zen
Berkeley
##13
Flight
S4
nose
речь
доброто
эксплуатации
сине
Sterling
Should
mum
##tach
Remember
остается
##еш
Rural
5th
##ates
##VI
HTML5
Gi
жолы
347
turns
mouth
willing
cotton
arrangement
Getty
##нение
Oi
Caribbean
эс
diagnosis
##иот
Mom
Orient
diagram
Са
честь
вино
DF
Согласно
строительства
##Я
ICO
roof
##gent
buffet
row
Зараз
##ькі
протяжении
##nter
doubt
bye
Complex
Heavy
##оры
begins
Foods
Chocolate
##уге
Ана
paying
часы
landscape
B0
Solution
resume
2100
Federation
bridge
mesh
Зоран
спорта
храм
кан
Sv
##рни
сообщение
Jaguar
решил
expand
SAM
Grade
favourite
DG
отличается
debt
##вите
##khe
##case
работни
Musical
stylish
Chicken
PLN
##ilia
FCC
##ован
980
Heather
follows
##raz
Inside
strip
reserved
KK
##бой
Nordic
##нга
мужчин
##key
bath
Features
##rle
##tors
CAT
promise
##face
desire
symptoms
одновременно
Затем
Aston
Lukas
отметить
независимо
perc
LU
Blade
incredible
конструкции
Gene
##alle
автомобил
##Ш
##nell
transformation
ss
Oli
FS
GI
Secretary
slip
##oke
любви
##гаж
##ают
Mura
Ap
341
документа
rod
routine
##istan
##жений
conception
P1
смерти
Онлайн
schema
специалисты
Discover
approximately
pension
780
ISO9001
особа
##hop
dome
flora
##ули
Speaker
используются
имена
Ради
chosen
Rod
Avatar
component
##hare
Based
лекарства
даму
Hell
Praxis
Mercury
capture
заказать
Drop
illustration
Beat
##стью
appearance
referendum
motive
puni
Син
practical
новая
##teri
peer
ude
природа
butter
награда
multimedia
проблему
loves
Emirates
поиска
354
mortgage
stereo
religious
##дои
онхо
Rada
##нят
##лав
Doc
##19
##indi
##cara
родителей
Здравствуйте
meso
Rate
V2
проходит
##там
Dong
357
##bart
sail
повинна
sewa
анализа
Rally
fauna
Преди
результаты
ку
порядку
заболеваний
##ened
Ваша
Sensor
defense
BMI
элементы
ASP
##зов
Sunny
Христос
Jupiter
подход
Phan
##hne
Boa
##tron
RU
составе
bold
desk
facial
focal
##нца
Sometimes
temporal
GTA
Hof
evo
##kola
##pea
efficiency
близо
Communication
бих
##lf
##pla
российских
##ksa
407
employee
практично
брак
свойства
##bri
##дя
belong
appointment
lighting
открытки
самая
reasonable
domestic
Break
QQ
##пу
Downloads
Pietro
улы
atom
##holder
##yard
гривень
discovered
##lok
ISP
стати
игр
clicking
metres
keyword
384
##ales
##ака
402
DL
использовании
##fle
##ative
##дала
Len
воздуха
Lynch
##vena
depression
##цов
##buri
##овую
outlet
tables
##ways
##оди
Device
##lou
Nm
недвижимости
Libya
Ami
Legends
##zh
Yeah
Abbey
obtain
мед
Яго
сай
upper
Polish
840
Verona
S6
dynamic
generate
mixed
##нта
##usti
Ese
Luz
Holz
находятся
Bude
679
Сам
##rick
arrow
шанс
351
CHF
possibly
sons
texture
3M
автомобилей
DK
Flower
366
Gil
Алексей
AMG
##ister
землю
Naomi
Vest
новым
FT
QC
406
##aye
##ению
Feed
##энд
facts
Эл
аса
caught
##lmi
BEST
##03
Drew
Operation
Position
Finally
2200
WM
crack
matters
Закон
Oriental
туда
vii
shock
##зация
assets
trader
Commercial
happening
доза
Oficial
ри
Pilot
Bishop
##ily
Noah
помогут
месо
successfully
законом
Build
Nano
##bora
dvd
оформления
barbecue
666
Ця
yesterday
VC
anne
##тельных
##ppa
query
nd
ultimate
eve
HOME
##stri
нужда
##izing
Sint
входит
##tech
Retail
devi
##ids
Large
##lca
страх
disciplina
chapter
Too
##YO
Norton
deci
435
##OT
wearing
##fic
нравится
Plug
витамин
everyday
Bath
Ар
Unite
##ывает
ремонта
exist
##ilt
##visa
petrol
Dry
##nap
профил
tattoo
гораздо
Silicon
Wide
Ps
Root
Wire
никаких
horizontal
##ована
commitment
356
L1
Solomon
decades
OC
##mers
measures
Making
Return
sending
Pride
Dai
psi
Према
##radi
##ьным
transaction
тан
миру
Mouse
consent
оценка
Options
339
политики
excel
свих
##мал
##opa
Boom
DAY
беременности
##irt
controller
Haiti
##льную
бары
нарушение
administrator
Auckland
постепенно
##DS
411
Каб
##imu
##дни
publish
##мите
perfectly
rio
Troy
respective
##нова
##lder
большая
Стоимость
lame
##ннан
Floor
metre
##ание
syndrome
zet
##ары
##ind
Organic
Demo
любые
Wolfgang
381
Installation
Defense
networks
Ide
snack
##grad
##base
великих
##tl
##lace
##рма
сотрудников
Ponte
JS
дать
compact
общем
contemporary
другу
valuable
целях
Ericsson
Viking
swing
sides
obe
##platz
Уже
##fice
Tama
browse
##рал
buildings
##gd
##cano
OECD
celebrate
плата
хем
дому
нему
Backup
ear
stainless
Weekly
vacation
муж
группа
##fang
Ислам
Must
820
ток
##овали
пул
Eugene
##uge
KH
mb
лук
вице
CAN
LS
353
rated
ноября
processor
деятельность
Astra
разу
любовь
##EX
craft
Ecuador
346
Gr
##ький
относится
##att
поводу
participate
RB
##ERS
institution
Sense
Lean
условий
нове
Penny
Pad
candidate
Tell
##жных
Forte
Марк
чиста
##sted
файлы
4x4
Math
MF
Pam
ял
replacement
##idia
mt
Inde
pastu
routes
IEEE
Saga
Pr
Тус
Warhammer
##pira
authors
Rain
Garmin
##EM
сначала
бой
слов
Иванов
Isla
notar
Analysis
относительно
grip
##media
C2
Lexus
Singer
Windsor
Craft
NAS
Productions
денари
##veld
трети
medal
##EP
##вым
east
##rmi
##гии
satellite
475
Pos
informed
introduced
Ludwig
organisations
FK
взгляд
Сити
honest
LES
444
003
Working
Hin
##сам
##тал
Available
##oca
Matrix
Pli
ESP
Banking
344
##hea
##ких
cs
scenario
Coco
Grupp
тис
двери
Barnes
машини
Свети
##лия
MN
Parking
alter
crimes
1856
Font
##уру
страницу
Feng
Timothy
##enzi
##ником
##tov
fam
##оза
гектар
##вор
printing
EG
Nikola
##EA
bags
ping
intelligent
ordered
coupon
итоге
Conditions
dispose
##TOR
corp
##тельные
##tch
Democratic
hybrid
##яне
лето
Evolution
Copy
##hel
meat
Testament
downloads
graphics
##mb
врата
проверки
Ranger
##чения
represent
##low
SharePoint
protocol
accent
Basel
##last
severe
##бан
Rail
364
Lava
корпус
метри
большим
teeth
Закона
позволяют
велики
Mel
##ива
Perth
##ьний
привести
сих
NGO
##gni
реакции
noted
Forever
##tein
sensitive
printed
##rated
отговор
Third
rear
Idol
handi
XD
врач
##дог
##kh
##wed
Oriente
worse
Battery
Subaru
Blanca
linked
февраля
Coral
чет
Hood
##вер
RW
македонски
PRODUCT
singer
Ground
##овы
twice
##дра
stunning
Energia
empty
##овал
фестиваль
видим
SUB
structures
SONY
##bird
procedures
guaranteed
proprie
Oz
##lier
CJ
consultation
тар
blind
##wise
sq
calendar
Gulf
408
searching
TF
##gren
вина
##вом
MH
##17
league
элемент
Cai
сутки
M3
Sankt
##pper
каким
##дыр
414
Oda
##unia
entered
Banks
quiet
Yale
IPA
мероприятия
OOO
Floyd
730
Having
Нема
Pont
##char
роман
##kers
Legacy
##ический
##эс
##04
tension
##mile
табу
отвори
язык
##шок
Lam
persons
Swedish
##вол
мной
##хон
Database
gameplay
NK
анкета
##vid
тай
header
Points
partnership
TH
Tale
Romano
##ывают
cruise
fishing
HM
регулярно
##ations
marks
срока
##кое
##chia
papers
refer
15000
Wool
##нер
348
начинает
маркетинг
студент
undi
##arte
kinds
D3
круг
NSW
##со
##kl
##berry
##жного
membership
##йтесь
стиле
##smi
##LAND
Европы
##mize
##ush
Parts
##дов
планы
deli
##lav
возрасте
воздух
Distance
Jeans
Христа
reporter
Strike
##64
##cola
Instead
##ond
Ride
##ching
##биз
Kenny
920
##opo
##ией
Sexy
Sporting
##lete
termino
JJ
теме
Tokio
##JI
клиент
Виктор
##лал
Читать
отсто
##ees
880
Scan
NVIDIA
terrible
##ась
LL
установить
BH
satisfaction
Secure
##CC
ан
##kade
NV
generator
bore
loco
Brisbane
1858
вопросов
Vic
Wake
Frame
ipad
Element
##ква
i3
introduction
эм
##иран
##UT
HB
currency
Kingston
TEXT
Mitt
Премьер
Ting
большую
##лаб
Running
##альный
certificate
dimensions
annu
##eran
advertisement
EVA
##pra
Always
fell
игру
STAR
спорту
вектор
##ху
##ables
objects
displayed
Rīga
Him
Born
требования
делови
HOTEL
Category
##GB
Attack
reporting
JK
##urer
##ipi
healthcare
houses
386
HO
вашем
##eries
cl
SUPER
PSP
##еле
warranty
Возможно
rea
literature
Daim
platforms
clothes
extensive
nano
Турция
enterprise
Zombie
##кон
concern
collections
VGA
##рных
инструмент
gifts
##lion
##уга
текста
Situation
##чать
##ач
неге
Massage
WEB
RTL
##wl
JI
##зма
##city
##hs
##аты
wins
##рой
0001
##сини
suggestions
Qualcomm
##bler
##PM
активност
Lindsay
##orum
##чета
Units
770
Senate
##CT
функция
stable
generic
cit
valve
комплект
ancient
##rip
Hopkins
формат
dep
005
##fit
пе
Andrei
##вый
rice
оди
##жали
Пра
ICE
commun
CK
ответственность
phrase
##рит
мав
412
##lian
Sunset
волосы
остава
исследования
Concept
Као
jump
баланс
proxy
специалистов
VG
fines
ICC
##стите
sr
##жин
##22
awareness
Iso
740
##HE
Чем
Vinci
Mile
вес
строго
производителя
##ious
##уз
Without
tough
##vic
danger
Gaga
NM
конкурса
Isle
##nm
2A
stations
Andrews
416
##рии
485
портал
rpm
investors
Анна
##руют
Mala
##зам
Wing
690
Protein
Reid
Weather
Phase
реши
membrane
bond
##зни
operate
Sharp
dd
Epi
triple
hockey
treated
bigger
carefully
Properties
stopped
stretch
RED
oblast
##mens
DIV
Менин
clock
Heinrich
##ENT
Информация
##TU
Won
##tile
hotmail
interviews
Ruiz
суб
ха
использованием
habitat
домашних
##ош
##hie
670
Правда
374
сайты
##рик
Solid
attitude
сына
Француз
diso
##уди
майка
021
новое
ent
##тии
Drug
Mor
##кт
заявку
Metropolitan
formats
##KU
##lho
Extreme
##дана
clinical
COD
modem
candidates
Олег
Hou
368
Lifestyle
publications
рынок
Crew
scientific
authority
373
CW
##овое
Morrison
CZ
арт
Libre
##pcs
##bling
50000
приходится
Mozart
приятно
radical
представлены
issued
trainer
grid
HQ
Hits
experiment
Acid
##dz
Bora
Croatian
founder
Днес
saint
ANA
Дня
WWW
hormone
patterns
закону
смогут
Parks
роста
Iphone
Supply
кун
IB
Sus
##мер
вопросам
поддержки
ps
##oku
proposal
состояния
Trinity
нужен
миллионов
##quet
##uring
Joomla
JD
##сте
IMF
equal
investigation
##nent
##деп
Technical
Labels
377
CG
discipline
1849
##esh
Лос
##sley
contribution
20th
МАН
improved
##ied
искате
token
Rand
провели
Управление
missed
мужчина
кат
languages
##мой
worst
Spam
начал
Fix
interval
gri
шт
комиссия
Други
##lers
раздел
процесса
drawing
Банк
приложения
##oil
drives
##gari
Trio
363
##мет
Суд
decor
веществ
recorded
knowing
Получатель
SATA
Montenegro
Gucci
##mere
##оне
OT
почта
uploaded
Christie
OE
##ваны
##fera
Mohammad
devo
POST
большинство
Meu
hose
ставки
personally
Cake
effectively
361
##нюю
здоровье
##ady
bell
temple
##lg
которому
##RC
Bau
##35
alpha
ending
1016
POP
##cks
##VO
сур
Bent
Nico
##ере
extended
Chu
моделей
##zta
##lling
RN
Bolivia
highlight
приводит
noise
Chamber
robust
fragment
Banka
аш
Queens
внимания
Serena
1854
372
##aine
reserve
##raw
Tiffany
710
Wis
Werner
##ender
Germain
dialogue
Healthcare
contents
frequency
analog
проверка
Goldman
Brent
keeps
##оду
Wal
closer
##сне
Danish
##udio
EURO
непосредственно
ДА
комитет
flower
Liz
Homes
##politik
институции
Cor
##EY
guides
S9
практики
сумма
Sc
obligation
Первый
##zil
certified
supplier
Easter
ritual
Hammer
говоря
##очных
Symbol
нужна
Dynamics
scheme
##cation
Amir
университет
1855
Balkan
ROI
affected
reduced
##порт
facing
considering
##rgan
утре
##rds
noticed
##syn
Дом
##oin
роли
Disk
##нна
##гли
holds
contest
##жда
supplies
Grammy
Christi
парите
##аем
Desert
ages
neutral
recording
align
DLC
##ическая
##nikov
Chester
Ваше
Борисов
##чение
odds
electrical
моей
regularly
##file
##шек
##chat
##laus
ct
Bahn
Honduras
##вание
Horizon
Hardy
Griffin
Turn
##CI
circular
interaction
369
##цю
##yag
Mio
ATV
разделе
квартира
##kko
##пис
книгу
Flow
cp
Meeting
##leti
microsoft
fre
##оль
мужчины
Faith
##viti
гг
Ленин
Bright
lies
Apo
HE
Greta
unable
дневно
367
px
RAW
Instant
Zara
##ально
##life
##оки
##фат
площади
##очный
tomorrow
pricing
Fat
Pharma
Evan
PN
Rest
bird
def
##Æ
##лот
clothing
PDP
expansion
tiny
##wick
warning
Peterson
лучшие
associations
504
376
assessment
секретар
Вось
journalist
horse
##cles
Flex
##pm
машину
##зан
мнению
##яет
432
##май
Galerie
пароль
Birthday
Мадрид
1812
healing
познат
имеется
знания
##hta
##оми
коже
macro
##TT
vendor
ambient
Koh
##sari
Away
ООН
Worth
sciences
##vari
##yso
##лад
Bryant
##table
Package
Brook
Beck
##фер
Рим
дала
##ред
dangerous
знаем
Raw
Велика
Глава
listening
FSB
purchasing
Sprint
Giant
форм
JC
##endi
Hockey
Pope
ilo
Wade
409
основных
##рена
simula
интернете
1851
Внимание
Gym
Flying
contrast
chemical
заявив
mainstream
occur
revealed
Frost
Judy
##нку
##rren
Yin
тос
##шена
##wad
##oid
##чага
requests
Nest
860
turning
maximal
Plastic
глас
Consumer
куни
##сто
оставить
сул
BL
Promotion
Tej
##пан
##него
qualified
##graph
небольшой
никак
GW
362
неки
ключ
T3
гел
получается
ppm
Villas
455
Mc
421
Roosevelt
Persian
Ladies
оба
MINI
ночь
великий
priority
Groupe
Манчестер
##яна
BUSINESS
домов
narod
металл
Bentley
draft
Dhabi
##инде
votes
neck
процедуры
lucky
##ьна
Karel
rena
земли
##ической
designers
Wondershare
golden
Musica
Turki
цветов
Abi
halt
личност
cog
fighting
обработки
##EK
##ffen
Anglo
##eck
включает
Trends
Neu
##ager
райони
##сар
circumstances
Cottage
Киев
##вим
##rif
banking
A6
Haag
##eso
Curso
exploitation
вновь
Renaissance
##pic
integrated
Module
walls
Federico
возникает
Kol
planned
awards
Nom
V6
Тек
Jamaica
SDK
##HAN
Tang
Oko
позиция
ERA
##тия
378
LH
сестра
##FF
стои
Cyber
специально
liquid
Роберт
A7
trick
##pik
tile
trap
Chemical
меч
PKR
matches
##яла
Jade
Roth
Serial
void
Arc
##нах
кул
Reality
##шено
origin
editing
Greater
UT
MJ
graduate
loading
None
regions
080
Liquid
##мир
3A
Mastercard
##щать
unknown
аудио
framework
lessons
1820
judicial
accuracy
затова
Brett
Vem
Hr
слой
Thunder
необходимые
lists
determined
##ег
industries
##щает
adj
Angels
##альных
ECB
indoor
##тори
общества
CPA
HF
каждом
ONG
Lance
##suz
первым
обеспечения
##uler
Дата
быстрее
уй
временем
koda
evi
##вка
Exclusive
сделки
v1
notification
Simply
motivation
странах
фактори
reflect
посредством
variables
Nero
характера
1845
bowl
flux
FIRST
fills
энергия
##ама
monument
Packaging
##нак
##stadt
хранения
G7
Session
##ований
NZ
##оа
tanker
tropical
Pond
##eter
ASTM
##оги
##tide
Bala
Mining
SMP
consistent
Mustang
tasks
##рование
servers
OB
уку
коло
плохо
pitch
defender
администрации
WI
indicate
Lightning
##ites
##зму
полный
определить
frequently
rally
cyber
forced
Bart
margin
char
Apply
388
ESO
Yer
паспорт
Telekom
##аться
Put
relatives
Archives
modelli
Th
Добре
ESA
бренд
AMP
Rapport
##ners
422
grown
##itt
LIFE
Senegal
Medi
##xen
дума
##тики
fourth
normali
зал
nod
interactive
##cap
baye
Purple
locals
810
чим
matching
spaces
##ride
Mineral
pk
employment
##жной
382
##pris
матч
фотограф
attached
Всеки
integration
Pretty
особенности
hello
##dering
graphic
Senator
loans
dull
##mand
хотят
Peters
Де
отличие
краю
LB
местах
##hman
Динамо
##онд
lbs
становить
##енным
Patch
Dental
##стями
western
throw
TNT
##mula
cook
##лните
swimming
##еше
379
Zip
сообщил
IFA
##visi
tested
dimension
девушка
##max
##изм
опять
читать
следующий
##lent
pocket
##tics
DRM
agencies
робота
445
Guitar
##wald
rel
algorithm
Rudolf
##jun
Olsen
##вую
персональных
самому
Rapid
Paint
convenient
явно
##eca
LM
389
Смотреть
Ane
Nai
##elis
sustainable
##rand
cumu
##dent
GeForce
##лаг
viewing
##koy
Mg
##ZO
считает
##vest
объектов
##als
##hong
Vul
citizens
##krat
fps
хот
screening
champion
Years
obvious
известен
варианты
##ots
constantly
NF
запись
чисто
Excellent
licensed
tablets
strategic
Nothing
Signal
окна
полной
SAR
Katalog
начали
5D
bluetooth
Railway
Среди
Billboard
optional
##атор
ars
cr
Secretaria
##NY
383
sensible
капитал
турнир
##жих
fellow
CAP
AO
producer
зала
монгол
Asset
mp
Dow
##нко
1853
unna
##enden
душ
lets
знати
объект
Seminar
Myers
реализации
Move
##овано
##kaya
двумя
ministri
содержание
техник
Strong
##px
##BI
контрол
snap
feelings
Belarus
Vim
identified
bottle
Ла
cholesterol
##бно
012
Милан
533
NCR
##дия
основании
Avenida
Compact
Koch
##oju
налог
Stalin
Organization
topo
Ita
звук
случая
жене
scenes
Pier
bands
legs
Fiesta
Вчера
##cot
Kala
Honey
кеп
##sai
книг
Horn
mount
нажмите
SN
Chain
организаций
договору
##лам
##ANA
memories
spots
любым
ног
1844
рабочих
проценти
##чек
Германии
##boro
##ship
502
lac
производится
глаз
asset
##ians
автоматы
discussions
Transit
вроде
воспользоваться
Rat
детям
carried
##ока
agreed
MSC
Impact
transactions
большие
strike
##дий
HTTPS
mature
rag
patron
criteria
##polo
Numero
flip
CES
Kor
Labor
collected
Порошенко
maker
Anno
UPDATE
бос
dreams
##lya
deed
concerned
##тных
xx
наука
Native
influenza
##MENT
##500
велику
##kne
письмо
alert
##avi
fc
Joint
guidance
##мова
##тично
интервью
Freeman
Bone
contacts
Некоторые
примеру
Azo
finger
boring
Pt
##lve
Yun
##Ð
Export
VISA
вашим
surrounding
Ministry
##очные
Notebook
MSN
Bat
##hood
KD
shops
##fte
olive
##old
dec
##para
##უ
Letter
Mask
собственности
праздник
##нное
387
могло
logic
Nana
Aviv
improvement
Voices
##ox
evil
обучения
Jenkins
wrap
Cabo
Chapel
1846
какое
##ял
Brussels
карте
##ео
##master
##ety
рейтинг
Саме
508
419
agriculture
automatic
entirely
specified
##алы
##ует
Claus
какая
Пожалуйста
Burns
Riverside
Picasso
contained
proposed
отношений
Stack
tissue
1847
P2
landing
чудо
Prize
skep
менеджер
Herald
диета
Adolf
##part
Tracy
writers
мост
networking
ease
remaining
Vogue
любую
Remove
Rolls
Calle
учетом
##rve
7th
IO
Dear
1852
Sci
Nouveau
silence
favore
Dove
Beli
банку
штат
Syn
lobby
Churchill
Import
taught
Foreign
пределах
##tting
##rod
shots
nearby
deporte
##чете
433
exit
percentage
F2
рады
хона
faces
Kes
Primera
рамки
437
##br
explained
Adelaide
serves
##iver
archive
MSI
##orn
Interface
stair
Verizon
##nds
Garage
видеть
secrets
Birds
downtown
managers
##шко
Описание
casting
способности
катар
575
Све
##yne
##бна
Cave
documentation
queen
##тот
атмосфера
immediate
##gl
reaction
grey
CSR
этапе
picked
монтаж
Venice
Flickr
Schwarz
Ariel
Cedar
Survey
##RAN
logged
Су
programming
Owner
visited
sov
Wei
TNI
храни
enhance
attorney
##dge
NIE
квартал
USC
431
Sind
1839
Bro
abs
Modul
##мов
##hausen
службе
депутаты
##ТА
Chrysler
Cove
##dr
##ight
inner
##pro
##lev
##альная
Prague
Sims
отсутствие
Traffic
utt
Stark
ле
##oor
##DER
970
camps
catering
##рген
##NCE
Gerald
Brno
Након
ACE
##няй
##eum
jewelry
wise
Falcon
##NDA
герой
417
Далее
Host
заранее
DOC
##jui
v2
##льное
conscience
invited
самим
bread
Бразилия
##ook
Ivy
cancel
Vy
Cl
fol
ND
##take
##bei
typical
Lag
Marilyn
OUT
##уть
##ути
##kre
простой
holidays
##LS
##riye
милли
##uca
dx
##atus
30000
##uhi
ey
465
meets
Associated
##гал
TG
468
anyway
IU
сведения
другому
acting
413
специалист
4GB
392
GL
sgames
451
##жал
деталей
историю
directed
harde
##lish
Wildlife
дур
Maestro
##тоо
assistant
JPEG
##ider
следи
Layer
##дой
схема
prac
Член
##sle
маро
Salzburg
##itia
производители
форума
Dora
Закону
нужны
promotions
officers
Manor
Богу
trained
##verse
Framework
transit
reception
##mila
Moro
Armenia
##hil
Advertising
Seat
больших
Sid
Controller
Soy
##ols
Мой
040
##град
Bingo
outstanding
##чая
herself
Chak
Оно
терапия
Тим
##iler
взрослых
TJ
общей
курса
##hera
##club
Noble
##Й
threat
855
Napoleon
391
Minimum
Calendar
##rup
Sunshine
##zano
Startup
compliance
488
checked
подготовка
solve
##нул
CONTROL
Romana
savings
830
composition
Telecom
sap
concerts
Westminster
boxes
Fro
##sg
meas
скорость
BIO
##rain
Krishna
429
Bloom
banks
##енный
Fruit
performing
марка
marijuana
ком
503
Dynamic
D2
Everyone
Unfortunately
jury
показали
##гляд
IDE
2600
зат
Lakes
коментари
##сун
Therefore
человеку
##OW
##dic
избежать
controls
раст
##вки
VPS
DV
Athens
Wear
##ICE
Tales
ic
##аю
rim
generated
максимум
GNU
пользоваться
guard
##телем
##щини
Wheel
seriously
Shan
##вин
маршрут
Несмотря
PPP
##чил
##ML
цар
дерев
511
roles
515
Северна
##овка
##cor
государственной
##bee
Город
Wholesale
Pepe
##ark
Chad
студии
Ольга
creates
hege
начинается
выглядит
##wind
preview
ADA
эр
verify
Wand
Roche
recognized
drinks
Dior
##sive
S5
программе
Hôtel
Ebe
458
хэв
kHz
originally
medieval
##bell
Такие
Centra
SAMSUNG
##mov
заниматься
ec
##too
Bela
справе
Brain
founded
indispensable
423
##deb
bronze
Роман
ДНК
##lets
Translation
##рный
Дж
вперед
bono
rubber
современных
бал
##гэ
finds
plain
Designs
##енных
BEGIN
##URE
horri
Romance
поверхность
хол
##alen
niche
##зо
Brien
##QUE
004
Assembly
##сет
Router
##ability
заключается
##ages
H2
хариу
Unlimited
мебель
проф
Моля
##RN
##нина
наук
Ticket
Goa
Berliner
готова
1842
Aman
Depot
judge
потреби
phones
энергии
Flag
Тук
1835
Process
blend
424
##ctor
##riga
участок
квартире
Pearson
KC
строительство
##рок
##lico
Chung
Commonwealth
morbi
Risk
JM
intention
Vilnius
601
Ime
lawyer
##енне
##ыт
1837
ет
экс
rack
тод
Civic
Manu
CET
Gustav
##ront
##rist
packages
gotten
##пай
##ницы
##ляти
CPI
моментов
pleasure
##Name
##альные
задач
Sleep
impressive
##оп
##чени
Kirk
canvas
indeed
Gina
UX
computers
Loop
Royale
militari
##ческом
396
проводится
aside
пациента
adds
##лени
Baptist
долг
IRA
##gge
guidelines
Certified
Epson
основной
Республика
suppliers
газета
##mare
Insider
Vin
6th
##OD
##rest
Петербург
Despite
##йно
Аль
экран
significantly
описание
комментарий
batch
##rog
Nor
Alte
##тны
brush
##вски
residential
pixels
Heaven
forest
##нице
##ждения
##osis
slogan
ODM
Toshiba
NR
Request
знают
fed
Tier
Kaiser
##LD
##olu
refere
globe
comparison
calories
обеспечить
506
Tap
спокойно
confirmed
ХХ
Primo
python
бои
друзей
население
канала
шеф
##по
регистрация
##lub
событий
##fina
Vie
##tering
channels
##IAN
производителей
Георги
Interactive
адвокат
##type
##sati
VT
##зь
Twilight
##hado
широкий
Shore
Всё
##вне
profiles
##вши
бел
##vei
##eak
Yet
eligible
результати
Wag
Nicola
выполнения
Musk
##шке
L2
##дир
YES
конкурсу
appeal
##mail
OO
##FT
418
сделал
разы
Стефан
##tres
exposure
одежды
1815
Highland
boo
семье
оне
Arctic
##born
##ect
кратко
объем
Kap
ось
несмотря
##ope
смартфон
##тельной
ФОТО
DEL
##яр
##щается
##лят
важен
##зира
Loe
##ICA
##рата
Str
converter
Veronica
потребители
reverse
##иев
Топ
Keyboard
cultures
pound
##ека
Blvd
validation
buffer
coat
Avis
сравнению
sodium
Fight
768
элементов
Tutorial
##сат
supposed
причины
Fraser
Помимо
##уш
398
игровые
evident
Newport
ESB
Phantom
реакция
diagnostic
burn
##рч
##Ч
Medina
Strip
Reagan
Бургас
427
##iling
опубликован
Пол
LIST
443
видом
2o
Мартин
произошло
Español
считают
historic
Herri
verbal
днем
Reno
giant
последний
expectations
Нужно
armi
комментарии
##ивно
Обама
персонал
Зато
##чика
intel
Anonymous
FULL
Historical
DATA
##фон
##телен
статистика
Kuwait
Arduino
##DY
tender
темы
хан
журналист
стр
Translate
##cea
##йка
##ивать
прилично
##rige
fur
UNICEF
Hermann
Setup
1838
Later
pleased
Rum
Capitol
##lman
которыми
##press
##aso
Lead
MPEG
##hut
##meta
##java
researchers
##кла
Какие
##lines
Центр
riche
telephone
##AI
##mond
Carte
##ование
Кстати
fate
##рас
forbi
jud
suggested
##core
HDTV
isolation
Cartoon
planes
stages
Torrent
illi
AVI
автоматически
Бар
сцена
thin
##логия
Quad
represents
поведение
GIS
##mati
макар
##lk
sections
Шул
Planning
Lau
highlights
##05
покупке
Dash
пары
Croatia
immigration
##нати
электрон
Aki
mainly
Million
##док
каждому
excellence
##ален
##оци
Baik
393
meetings
Medicaid
Practice
бок
##lein
dealing
456
bb
challenging
Adapter
синдром
Baron
##сол
##бра
Страна
Baldwin
5a
##кот
вернуть
Puma
##tree
Bl
Rise
wing
имущества
дер
##yse
syna
heads
alo
Zeitung
ost
rein
extract
Martins
decade
Кубка
##ося
grab
moderni
Япония
dpi
ресурс
##ZI
районы
anniversary
MMS
Question
Rochester
##тв
Cia
Sib
искам
Monet
рис
Liberal
##лии
проходить
Tibet
losing
kits
firms
##sur
##own
790
Chaos
crowd
Пока
Promo
Wesley
concepts
Купить
##LT
##мина
##щик
HOT
##нения
Roses
##pse
##ener
Standards
Такой
checking
##CIA
температуры
AUTO
Nutrition
сердца
contribute
##тина
передачи
##qua
нан
Valve
426
Surf
##gor
RCA
##ryn
такому
assure
Hamas
Необходимо
GUI
earned
Спорт
Arm
Irina
символ
##toni
##лерге
##кото
Facts
общего
события
суток
##hak
##еля
gonna
neighborhood
1836
##tory
Task
мод
3200
Princeton
resistant
##ёл
##sberg
reform
Англия
##utor
##istic
Becker
ссылки
stored
панели
10th
##ясь
##obe
WOW
Maple
хо
инфекции
##arm
Teddy
moves
этап
cartoon
FPS
##vem
NSA
##дани
##remo
kilogram
Такая
Boat
Игра
##лд
ARM
определени
pene
хотела
мужа
изменить
Вале
calcium
##ucci
blade
riding
##hine
##зно
магазинах
Един
Writing
prom
процентов
Назарбаев
обработка
747
подробно
accommodation
Members
Natalia
EXE
телефони
Республики
платформа
ре
samples
Schweizer
twist
approval
DKK
ресторан
лета
ongoing
regulations
Жан
##ury
3DS
прошлом
##ически
linux
Mesh
expressed
Худо
Нека
Indi
442
##тний
periods
##гой
thee
4D
sup
1843
тысячи
##48
##лого
дополнительные
##vesti
поред
brutal
1821
1841
clips
Энд
ТР
McLaren
Fiction
органа
Го
Ever
Kale
##оски
Method
exhibition
Tym
git
Crea
Same
Господ
699
Volt
здания
Saturn
Dolby
5A
##ука
Ii
Fue
##хай
ace
##PC
##sira
Payment
flying
Riviera
Fear
насколько
Ваши
428
##жим
Bal
buyers
harder
Lamborghini
##уют
программ
программу
Respublika
Hayes
живи
Current
Crime
relatively
Chiang
##ives
Television
certification
Alert
invest
fusion
675
tight
Jump
killer
многое
Bremen
##рски
##ystem
Kill
PAC
сторон
разрешение
magnet
зоны
Internationale
Gospel
приятели
плане
followers
Late
handicap
##mAh
KY
##нды
Sec
Lancaster
acquisition
Америки
870
releases
romantic
Schools
dish
реклами
434
Нови
зар
Categories
Labour
##ьких
tens
535
Ovi
решить
sink
blocks
Бизнес
Jungle
457
столько
yours
formed
взяли
Consulta
ING
##cre
использует
wash
STOP
##roy
##hart
Regina
oc
PTFE
участка
пишет
языка
##бург
ACC
vigor
POWER
##igu
Данный
1831
Vince
Tere
##onte
называют
дают
##чала
scala
Contra
397
1250
сентябрь
душу
Lambert
##ири
449
394
ежедневно
##rial
##чина
mk
несет
Томас
Elk
крайне
username
языке
фонду
lesson
Axel
CFD
Left
SMART
Ко
изделий
ход
2300
гади
##стар
##nation
Adventures
Devil
Minor
equivalent
functional
Leaf
Olive
##ror
Dot
Париж
Имам
Thi
realized
препараты
21st
##еди
##тр
Abo
girlfriend
##щем
оформить
профессор
dragon
hurt
##rts
Boost
зони
приготовления
Bauer
JB
controlled
portrait
pounds
H1
Such
Aid
промена
bodies
Shot
##шую
collective
серия
WIFI
Feature
believed
##uid
mv
Manga
vapor
вниз
напад
fame
organized
speciali
Conrad
##рос
Ede
SIP
##ischer
##atic
offices
##ело
FOX
станции
speakers
tricks
##izer
экономика
Roller
##есь
Sons
Sort
Bug
Affairs
Homo
Bolt
журнал
##нома
Cute
TYPE
##ького
enabled
pseudo
Indianapolis
Петра
Architecture
inca
основные
518
Resorts
auxiliar
somewhere
сердце
храма
вызывает
значно
нын
##рона
##чики
aze
Sut
продолжи
настолько
Politics
Users
##ption
продаже
containing
Resource
030
Durham
Доктор
spins
atmosphere
585
##cid
Stones
рата
traveling
Katy
Unity
circle
Monkey
PJ
##дки
Eg
509
struggle
carpet
найдете
EZ
социальных
pw
Console
Sonia
входа
Dona
начина
Dresden
boots
##Google
поставить
##ctus
Webster
Oasis
Military
passing
Edi
##хт
Toro
##ише
Piper
Climate
ЦСКА
##yas
##ички
ову
салат
институт
voltage
гола
reputation
Arms
Си
публикации
##ждение
Disc
N1
4x
tk
детьми
настроение
##ysis
ratings
echo
##65
Agriculture
linear
заявления
##лых
Tallinn
Sage
Warrior
Bayer
Guangzhou
сари
thumb
роду
Networks
441
opposite
##тация
spoke
##RK
##дел
coast
ближайшее
Ep
хат
занимает
##чили
головного
Mani
statements
Aig
offset
snacks
gw
Fritz
Alarm
##йна
ІІ
##ирует
Rotary
Killer
Thomson
joining
Pioneer
даты
proven
trusted
##зда
технологий
##вага
615
реч
Stern
Annual
mirror
arrest
семейство
##тий
общество
managing
archives
strict
Nin
volumes
##ovna
wooden
##шты
партнер
Gent
catalog
##ант
covering
CFR
royal
Simu
неко
essence
##pano
conducted
447
##View
##тат
тада
Trevor
##pora
##бите
consulte
diamond
choosing
##PI
намного
Kyoto
##года
soil
acts
рус
##шин
prescription
x86
HL
##нская
Fairy
Banca
##иг
главы
Repair
strange
##байт
река
режима
equipped
свом
дерево
девушки
##ленне
Maximum
bodi
действует
##rry
площадь
Push
Idea
EH
##lide
CPC
##щую
mild
инвестиции
##рали
1001
##иро
Telegraph
tunnel
Counter
Zan
dressing
##сот
комнаты
Though
Preview
драма
Madeira
Новая
peak
KR
юни
оператор
Symphony
получила
transportation
Leder
normally
hasn
врача
surveillance
##ология
живе
усилия
lip
pile
##wire
зуд
Проект
Upload
Allison
keys
AED
1832
##urt
scheduled
xD
Hussein
Theory
помещение
##пка
DH
смерть
DSP
Tierra
проведе
conduct
mpe
##tec
продукция
corre
Journey
##WE
стоки
##шее
красиво
##ционных
##liko
Nvidia
##руется
Cost
Prim
Royce
АН
themes
Pain
##ило
Environmental
KP
Knowledge
Adi
##hore
транспорта
sized
##гана
Economy
G1
conclusion
##кар
##pace
##тет
##гоо
Sites
realizat
писал
##brook
thick
KIA
##сида
pine
армия
448
Gap
груп
sys
зачем
restore
Devon
##тски
Summary
2800
##onis
Qi
insight
пункту
Radeon
Hour
Riga
Raj
##oom
относятся
##кат
##вани
крупных
Максим
поддержку
Neon
##еки
Questions
##жку
поставки
##NK
##mum
##рного
G2
rail
карти
##тельным
Вашего
##оби
missions
корпуса
CX
sabo
UCL
Lis
Eo
погляд
##rop
Diploma
ний
пользу
Estonia
Powered
##ked
Halle
defa
кабинет
##cale
оценки
WS
Корея
wap
Lebanon
частью
##ваме
limits
##дем
хор
S10
##уйте
Ferry
vocal
##тым
##бон
мода
prints
причем
##сов
мозга
зоне
matrix
Manufacturing
PAGE
процессы
Код
##mn
bias
носа
8th
Premiere
jacket
стави
inspire
Mona
Tourism
благодарение
Бала
Ska
##няе
##ияти
баг
##rive
Шта
очевидно
готово
настройки
Такое
compensation
occurred
widely
страницы
Minsk
centri
ПК
packed
тепло
Garda
Gardner
Leadership
faint
пришлось
ACS
Vernon
Добро
мяса
stocks
corpus
Церкви
маска
classroom
grew
Kho
##лок
Nieuwe
delay
росту
проектов
nights
парку
##foni
##force
Tribune
подготовки
Fonds
surprised
##mbu
estimated
Carey
Rescue
звезда
AIS
пройдет
сегодняшний
consultant
increases
Parkway
##kins
fuck
depends
##шил
DES
Ibid
insights
##цима
##ору
##вед
Россию
provincial
436
##tee
Shoes
454
поп
courage
alive
1024
Mane
##деу
##uts
##ack
995
##baye
curriculum
другую
Bend
UCLA
цель
Dragons
Pep
USS
салон
Искате
ince
pg
WTO
chaos
pepper
отметил
Bring
participant
аромат
minibar
##wt
расте
Над
THIS
##mou
##sd
##хий
930
employer
##obo
P3
##oot
##зен
Yong
VALUE
##мж
поток
советы
##nium
ста
quota
баса
##ею
Until
finest
circulation
Ага
buyer
Dock
Значи
Caterpillar
Archive
АД
Cast
такова
Maro
##кции
##xis
Armenian
лента
##стра
Sari
Rim
Nine
комплекса
##нув
Presse
##rone
tn
##tler
Praia
1789
американски
victory
Spin
lawn
график
Operations
poll
Agreement
##вена
Nguyen
KT
1814
explains
контроля
const
##бки
nominal
WT
##loni
растение
Vatican
подобрать
компанией
сату
летний
игроков
trigger
streets
1750
##щают
ит
Cabinet
deng
authorities
прокурор
suspension
Danske
##shan
##bilis
опасност
WD
##еви
438
первое
replaced
Netz
Dreams
obtained
##ьне
VMware
##cim
страну
Unknown
implementation
Graphics
Oblast
inform
цен
##лий
Fuji
Две
utility
##IX
Marks
##зон
##ganiza
loving
аппарат
Albania
Ru
округу
KW
##RM
сделали
##нты
recommendations
twin
Swan
##ДА
1834
tsunami
drinking
мнения
зна
Sonne
##нче
Tae
##ying
##жить
CAM
уми
OA
Ged
##™
##еми
Система
palette
cluster
##BS
R3
SBS
Portable
снимка
616
foam
Imagine
##SU
SEA
##wee
##дии
toys
газа
вашему
Lux
summary
infection
resti
Rewards
Buddy
градус
Row
способен
##reg
##эль
ля
десять
##ющим
sd
stats
duration
Maxi
##иа
##мна
Ain
##rion
referred
ENTER
##еси
тап
Ming
titles
452
м2
выборе
premiere
Кызыл
recognize
BOX
fart
rank
1833
FedEx
Потому
Буга
RAID
Rocket
замена
##жете
WTA
##ените
будущем
##енные
IELTS
HH
дату
##дро
##Book
B3
шы
templates
ws
Проте
discussed
проще
##вате
Rap
##rac
##еу
rolling
сайтов
removal
главный
Milk
Будь
##ешь
suspect
встречи
граница
##mber
##gling
Жер
453
Mexican
Subject
Elder
##fini
Messe
чтоб
Yandex
Warning
combine
stack
##rge
8GB
19th
реально
мах
Pandora
modification
microSD
##яд
steam
5V
бюджета
##лению
##roa
Leather
binary
identifier
seats
##ВА
приняли
Nazionale
Ct
Xu
##bec
проекты
Copenhagen
пахта
army
##text
younger
Эми
подробнее
##fold
Webb
Guangdong
Pvt
Arch
вэб
появляется
Ren
##genic
VoIP
Moody
Knights
hide
Strasbourg
Silk
1440
##еза
Plata
comic
питание
##lex
BF
Primary
Казахстан
способствует
WWF
производ
российского
##Ω
improving
социаль
случайно
personality
Eyes
Время
##вич
Machinery
##дати
##дау
команду
Greene
everywhere
Иногда
Dropbox
476
##dex
Zar
##шают
birds
изменений
Corona
Getting
##раз
получает
PAN
645
Automotive
искать
##лые
успеха
##hni
отзыв
двигателя
Punk
##ITA
##esto
tent
stuck
##бин
Arrow
Sector
910
род
Исус
представитель
##RNA
##жным
##жено
wholesale
439
4S
purchases
##дать
последнее
##сем
ситуацию
предлагаем
##geni
##рди
##ваются
burg
MAS
##рх
Below
Companies
MMC
Lights
resident
прокуратура
ERROR
Friend
огромное
shaped
акция
aspx
##вшись
наконец
BLACK
nations
publishing
Alicante
wealth
513
theater
##овим
сезону
##tao
целей
##пон
Default
461
##чали
broad
##рий
secondary
яйца
Broker
Taliban
##пат
V1
сем
Semi
Verlag
Could
1B
fede
890
тун
momentum
Printer
Grab
preparation
Olympia
##мий
##mode
Foot
причиной
039
светло
##фо
Wash
attractive
Ли
Preston
MIDI
bones
##ТО
рекламы
вдруг
bt
dust
Hungary
Multimedia
##ign
Aba
singing
##RES
##бал
##леу
fits
Truth
##ional
тщательно
877
главен
dicta
rings
##кол
Ту
hook
##унда
получение
Strauss
committee
hundred
bend
кен
ASC
trace
Finnish
завода
идти
SME
rid
##ref
Sakura
603
XR
появи
##асан
##рано
фильма
requested
нормально
##гат
новы
новому
шат
Outlet
Deposit
yards
expenses
466
Супер
dece
Beni
meals
говорили
Perhaps
##Bank
Baltic
каты
Hook
небо
Особенно
Pla
будто
Phuket
каталог
mili
Reporter
NEC
извор
G20
Bistro
##раг
fonts
##става
Алтын
##mans
##hh
##кового
486
сохранить
Wings
immers
alerts
Something
Integration
##SP
karma
препарата
closely
##etus
Великобритания
Sachs
##уг
childhood
##ету
##23
Runner
##sions
Nat
fatal
##рде
Atom
instruction
математика
##rupt
Qua
##nsis
940
Cards
483
большого
Похожие
reviewed
комфорт
автомат
privati
##oco
consists
##dli
bacteria
desert
##гия
INR
md
JL
##око
identification
Economics
differences
464
Вся
Affiliate
##℃
Срок
principles
Tou
1050
участия
ATI
##енного
рекорд
##ровка
Oral
667
Accord
slave
Tse
preferred
Сент
605
##тична
Rent
##овом
desired
согласие
Bois
Duck
Satan
Plate
mutat
##евой
seed
ado
Bubble
нуди
invitation
diagnose
##TC
shoulder
##ирования
Rising
##erat
лучший
##ouse
offshore
PPC
обмен
timing
plural
Работа
Поиск
##кция
causing
##НА
Huang
##lore
прошло
507
Geo
чин
Speech
PMI
##чар
Aka
offen
473
446
##vac
Religion
substance
великим
DSLR
стоят
Lens
necessarily
bee
Strategy
statistics
Reg
##цом
Кина
1825
possibility
показывает
norm
Scientific
connections
##онов
Nash
attended
Shine
желания
##ино
Ras
##LU
doctors
uniform
galaxy
Response
риба
copies
BU
ADR
##ческим
787
1828
Slam
##berger
силен
##чном
облик
incredibly
Q1
##чком
anger
пусть
Booth
мировой
##UA
Buck
группе
расположен
799
цените
Dolce
##гай
##Э
Lip
USDA
##щу
##вени
probe
возила
сотрудники
FRA
##bom
SNP
866
##craft
соответственно
471
mess
845
confident
establish
##nize
старт
supplement
Fighter
зай
статья
QS
Vet
##нять
доступа
растений
reduction
Mil
545
Flip
Protocol
##xon
##person
порядка
conservation
Palais
понятно
Score
ASA
Savo
##сных
грамм
написать
##rise
Bonn
##ома
Hole
sight
labels
##тыр
producing
##очку
Yuan
supporters
contributions
##чив
сеть
Effect
bur
##нено
dt
Моя
extent
kiss
##tria
Simmons
Charge
801
какую
собак
532
##нди
dropped
##мата
Brunswick
Mbps
612
##чук
телевизор
Had
Zi
MTB
IMG
Часто
##шем
##лава
Sure
3600
passes
##BER
ча
стены
Tarif
463
Azerbaijani
мера
anymore
связь
##очка
ван
нa
walked
701
Ирина
fluid
создание
resulting
светски
DDR
второго
##ppi
##ычных
Spiegel
Waters
Aa
остров
OPEN
бюджету
орто
##иц
Nuovo
##лла
##uy
##жении
причине
CTRL
Pisa
маю
482
Materials
##рска
IPL
##UP
##tex
arrival
##вести
альбом
##бни
kernel
##чае
Quer
выбора
Skip
Eclipse
teas
доставку
462
обслуживания
борьбы
representative
closing
Olympus
##дник
suffering
##хона
soccer
Одним
структури
467
catalogue
Geographic
##тный
##cted
PGA
Berger
Тепер
Pros
literally
slowly
развива
налога
##LAN
Polar
##рение
стари
##очной
Lemon
516
высокая
##як
фитнес
СЕ
бассейны
сферы
Mystery
Kabul
Wald
Ван
##рту
achievement
Avon
хватает
concentration
808
стая
aircraft
препаратов
##льном
разни
сне
специальные
##яли
basically
заявки
intim
вне
ISA
КПСС
##ести
##org
счета
##start
##ZE
становятся
##тира
мотор
Junction
крупные
вовсе
565
Nuova
##alu
##rep
desi
просмотра
видел
signing
529
чаша
Generator
514
couples
##fully
покупку
IDM
exceptional
anxiety
Spark
scores
риска
antivirus
Jasmine
снять
пользователя
##лова
##тый
Юрий
##ланд
carrier
##ndis
агент
Mayer
##уса
Reich
##rono
1829
картина
Rooms
##еде
выполнять
нею
mailing
##sea
MEDIA
социальной
obligations
##хим
Тип
increasingly
снег
##ever
actress
дизайна
##wis
градусов
Provider
initiatives
проверить
##сах
Palo
nutrition
EQ
Tracking
Navigation
большинстве
применение
Vasco
Mol
##UE
каме
Landes
##ческо
##мена
##енной
##some
буквально
взяти
избавиться
##били
477
Johnston
celebration
Lad
Pavilion
##дад
каталогу
K2
Principal
ple
##улах
whenever
коме
юли
показать
Iceland
отдела
1810
названием
Nove
noti
595
IPv4
затвор
707
hepatitis
479
Sera
Somerset
Читайте
Weight
behalf
начальник
brilliant
домой
Dogs
##бных
замин
Ur
##group
Vel
Indeed
Bosnia
charity
##camp
отдых
##альной
604
##жай
Ryanair
OMG
##RIA
##тного
entitled
##chem
602
correspond
satisfied
##нства
FP
значения
Gilles
дорогу
##md
##Pay
Tex
courts
прошлого
MAI
ree
##кет
hosts
Mountains
##тив
жилья
Savage
Securities
##zs
613
друзья
лар
faste
Iranian
venture
Willis
какого
x2
fab
Яндекс
##тельного
incl
поколения
##xx
5500
utilize
умов
Slow
Precio
##ством
Lighting
Gare
Portuguese
eggs
##ird
Hebrew
##tman
применять
LNG
пяти
отказа
Lines
directions
структуру
массаж
неба
1818
бетон
##ched
Итак
##hma
##pri
Democrats
почту
parks
Потом
distributor
##gic
##ственный
##нула
jaw
помещений
459
##енная
Wiener
Президента
##тана
communicate
сертификат
sick
##beck
##нена
Dubrovnik
suicide
Therapy
##hot
preferences
Pulse
##erg
IPTV
Ось
Pl
категория
Хан
photographer
472
inventory
##бил
T4
разрешения
Certificate
##nberg
electricity
##яют
роля
ои
Document
006
##нием
shut
Install
profession
EMI
adoption
simulation
Trophy
дару
Skoda
Freddie
Abbott
469
купи
Cairo
Komfort
##ющего
Weiss
fairly
ах
##dire
##дава
мысли
Gut
zinc
##rable
подойдет
##hoe
Multiple
Ore
##CS
crush
Mental
ез
ios
Dion
Château
ubuntu
Smile
supermarket
1280
Gong
скорости
participat
6a
ALT
retirement
##villa
Абай
Mueller
ignore
progressive
scanner
моля
arguments
##onic
Марко
541
##жная
хил
мероприятий
lifetime
centers
Джеймс
##дим
##шения
##rock
Automatic
##ITE
Signature
Sé
Beast
705
historian
сервер
Pelo
газу
bugs
Кредит
Евгений
murder
enjoying
Господа
Hyatt
предприятий
flights
##kang
twenty
музея
музыку
Codex
##дает
симптомы
Hut
aves
gourmet
primarily
psy
память
##носта
Excellence
##sian
выплаты
Primavera
orientation
##щении
Ens
equity
армии
редко
див
##ntal
##тера
Cas
##мира
Spice
##чим
сюда
panels
Tunisia
Парк
##cott
divorce
481
Amnesty
Harmony
Bland
главно
фонда
prayer
наоборот
injuries
Одна
Connection
DW
##33
Chez
бюро
Monument
##ился
##шното
##тэн
применяется
фирмы
Nicaragua
Object
шести
tonight
контролю
##шон
##dov
filling
Markets
пациентов
filed
##рет
Constitution
обслуживание
бели
##99
521
Dev
restrictions
Belo
##еты
Autos
ок
Aviation
enables
##нную
##Go
высокую
##bhu
##мся
##чет
##umen
shipped
liability
sociali
##fine
commonly
618
##вач
poetry
##тке
##фта
##dens
TIC
Schloss
Genova
disorder
Environment
engaged
магу
Success
adjust
##tude
##истон
##hre
Bot
2700
свяжется
называется
городов
источник
отказ
BPA
functionality
Naval
552
##ево
##еч
голос
компанию
##вань
квартир
облыс
resolve
damaged
##Net
жив
##лану
Past
##нос
AY
Random
Обычно
##ственных
ext
4A
commerciali
insert
начинают
Cathedral
##бет
##вое
Buzz
Mise
##lip
rising
##phe
Together
INI
зависимост
household
основание
##пей
##сып
Kos
природе
070
##stat
##гов
Сайн
Guesthouse
конкретно
12000
Boyd
pets
Игорь
continent
##chon
Russie
##ass
##сак
инструкции
636
intensive
##piece
abroad
##пала
тог
718
##cur
красоты
Ping
heading
Eat
Dias
2B
особо
imba
Madre
искусства
камеры
##HT
ждать
WEST
bunch
раствор
##falls
Hoffman
P2P
Lift
debit
##ensa
Magna
Тако
Размер
puts
Май
Disco
##rgia
suggests
parameters
##rake
Bli
DPD
Тел
635
##дж
##cient
Contest
ур
##date
Tracker
Geneva
ports
неделе
GMA
522
Gill
Gazeta
Animation
Hua
##рта
Jacksonville
медицински
##nno
##сс
писать
##фу
ими
лак
недель
Northwest
аби
hoping
reveal
Thread
euron
Write
disabled
DSL
Sergey
muscles
##жает
##аду
climat
M4
Cube
Exodus
1m
defi
вирус
BIM
##елен
появилась
сыр
Niagara
treatments
##дка
626
трае
давления
Carlton
Pit
NOTE
человеком
Javascript
##SH
Tub
моменту
##евич
breast
aged
725
grace
549
позже
##gro
своё
Главное
deadline
glucose
бен
Updates
entrepreneurs
никого
отец
##ственные
##езд
Buffet
перейти
##khi
requirement
filters
используя
Sync
##вано
reaching
Абу
odd
##тара
занимается
##ваться
базы
##чное
депозит
##pide
DHCP
recognition
Ts
consumption
##rend
Precision
775
persis
ген
Oppo
##рс
achieved
478
часова
binding
SJ
newly
Хочу
##дают
Zulu
##ibu
отличаются
scored
##gaba
назначения
Давлат
головы
руке
B5
##аган
изготовления
violent
дверей
##лга
Realty
Hawk
Thus
факти
правительства
Константин
accounting
##gler
##beat
идеально
537
##дь
fancy
Words
FH
##ils
курсы
702
##nett
##URA
##хта
кардам
состоится
Wizard
discounts
Corso
##graphic
Bookmark
shouldn
##дсон
представить
##иста
##gma
##hall
Citizen
Merk
clinic
##яется
любит
LD
scientists
bn
Fortuna
YOUR
correctly
Гора
групп
519
##lki
Destiny
unlimited
##body
обл
ink
##жний
placement
Sands
##уми
##ester
##рей
instrumental
##yte
Bain
Wah
шара
Clare
Swing
Orion
entrance
grain
implement
##ковски
##аад
Австралия
Магазин
##kova
знали
slo
WITH
Ind
newspaper
##реди
Второй
Ix
611
Extension
festivals
oxygen
Clinical
Aleksandr
##зир
Vu
boards
вариантов
Lex
Димитров
##ате
curta
решений
Fargo
##KS
Articles
##гне
##rans
появились
barri
##ченко
##rug
проводиться
двор
##gr
GET
Индия
завтра
E1
столь
##yed
smoke
Loo
##AG
дае
##ctive
община
browsing
отдельных
##eler
pulled
##ARD
##evo
пора
##ath
artwork
команд
Всем
prize
announce
Reference
моих
GH
канали
heating
Stel
##cce
lease
Americana
Aza
X1
alternatives
scope
rub
##аний
шаш
pollution
целите
immune
току
##шов
Abd
брата
##CY
БСП
607
стадии
certi
Heinz
Стоит
##aut
Ukrainian
Path
Майкл
дополнительных
Pale
свободно
##аси
##анов
loose
Cornell
infants
charter
awarded
inspection
##zine
REAL
609
hash
каком
OBS
UNA
ladies
Vuitton
neither
AAC
##ERE
##HD
CLUB
Near
##tich
commander
летом
unlike
importer
Scene
реки
последних
##мно
stability
страшно
875
WORLD
repeat
bolt
##ising
Ventura
622
Layout
##hoi
Publisher
tide
таблетки
кас
вещей
сени
docs
precise
Антон
##oll
платить
##race
DIA
##кана
впечатление
чара
reci
Angry
015
ссылку
ИМА
##mg
terres
hanging
соответствует
дороге
##мек
honey
объекта
давление
внутренних
##кому
Inclusive
##55
регионе
Шу
дойде
##шени
weird
CNS
Kazakhstan
universe
newest
actors
pregnancy
alongside
минус
EMC
surge
терапии
528
assembly
Chronicles
нос
Dass
принадлежит
острова
##стка
608
tm
happiness
Дело
bulk
##uet
связано
мое
пищи
484
##чати
WAN
013
regardless
008
Emergency
Velvet
Cent
analyses
Casual
исти
##олог
##ату
ceremony
Dome
##36
extensions
самы
тамо
##DM
##OC
Isaiah
installations
Ard
reveals
Forms
##ьны
##ита
температур
capabilities
Ost
100m
##gnant
##того
Fer
##gee
процедуру
##gre
Rolex
Limit
показатели
N°
lime
polar
motors
falling
subjects
weapons
548
Fields
temperatures
Resident
BJ
ознакомиться
##жаны
Upgrade
DSM
SGS
18th
##mig
##shop
Blackberry
отдельно
кухни
почты
logos
credits
доступна
mA
mobili
##yuan
formations
surfaces
handmade
##лес
boiler
Dun
Movement
Heath
entering
517
служи
1809
##рил
##eon
474
стороне
corruption
##уры
##dub
headed
курсе
расходы
подробности
наскоро
говорим
tower
BW
1824
524
CPR
Grid
536
##ляли
killing
##сла
charm
направления
Metall
комиссии
##SC
##fly
##uha
таков
Chandler
##альна
broadcast
главе
Keys
##sius
Рус
##voy
сообщили
Trader
imagination
прошла
globali
ограничения
bills
customized
Аллах
##ebi
betting
infra
7500
survival
Stu
##име
magnetic
observa
sentence
дары
acres
штраф
смысл
obviously
хотелось
MAP
497
606
##nac
мою
Worldwide
Shark
##што
товари
IH
дэ
среды
доход
Alpine
##чкой
Republica
##никами
Влада
установи
##гла
##nity
прошел
returning
файлов
organize
Dialog
Maui
чит
облека
##kr
##оды
Lys
Hermes
##анда
Эх
551
структуры
BNP
##tly
Путина
objective
populations
Mauritius
Debian
##инд
##нот
##lova
Advance
2G
notable
Verdi
bind
Fabric
##ьное
##ution
scripts
##ules
Bello
25000
договори
Housing
кажу
дида
остави
ем
Mediterranean
continuing
власть
NAV
Ass
имейл
Judge
diseases
##щен
##AA
##хат
сказали
655
отлични
##гор
салата
Tate
498
492
Cred
Marsh
иных
Zurich
pregnant
trips
##06
Banana
Printing
Upon
DVR
Cricket
sg
Radar
Книга
История
Flowers
предоставляет
Sofa
английски
##ствено
Healthy
членов
##thy
Календарь
традиции
flavor
lowest
penalty
плана
Sandwich
нефть
conf
residence
методы
ремонту
награди
работников
зале
##мени
Hubert
marker
Marche
pts
необходима
Creed
Стара
561
1790
Stor
Count
CMOS
naturally
Петербурге
##iss
##емся
регистрацию
ислам
refuse
##АН
##wei
527
##rades
##дения
ассортимент
носят
видимо
##ющая
Wordpress
engineer
keywords
Female
523
##чила
ау
культура
proves
1776
legend
##мм
##AGE
газеты
abstract
полиции
пункта
Nail
afo
destinations
##уй
Deere
blocked
AMA
Used
NN
написано
donation
Much
Patriot
##hler
491
9th
форуме
extend
отчет
университета
Hen
bp
условии
существенно
тепла
##еров
operated
конференции
bound
##хана
hacker
hearts
Радио
665
##ционный
sectors
##стях
нормы
Dancing
1826
среднем
##enberg
Bak
инженер
представителей
Butter
experimental
брать
Garrett
broke
Reset
watched
##dba
##ляться
##New
##рес
конференция
самих
forth
Pentagon
reserves
territorial
USP
Ancient
reducing
believes
legislation
формула
scandal
489
норм
##уе
Tall
informative
входят
cameras
wildlife
##pli
favorable
##eder
считать
нити
дорам
Amo
##ленные
reel
bearing
молоко
покрытие
говорится
branches
Форум
##aries
##овно
DX
Carr
имущество
Centrale
##NES
свобода
thousand
IMO
##fying
drawn
открыть
Fo
принято
##дох
Omaha
081
ultimately
3m
развитию
напитки
futures
fabulous
Panther
participating
##асы
crystal
Porte
##siden
Doyle
хорошем
CAR
Kari
exists
##рные
careful
##Box
Relations
упражнения
domina
##ube
VK
grass
##миз
##XX
другая
искали
утром
##pose
##рате
Macedonia
##vez
постави
496
RPM
Teacher
##КА
##ема
DAS
вправе
Guild
Казино
ете
##gation
##pul
Offline
prompt
quantity
strongly
Ее
##бол
Flynn
##ттар
##wil
cuts
##wir
Rene
relating
modifications
Dela
Anyway
Впрочем
32GB
##аги
Castello
##чита
потребуется
Tropical
1822
##uve
025
NAN
##aly
Atlantis
важных
заходи
enemy
получат
##щена
##тро
825
informal
##сий
##IF
Sauna
trou
538
worker
487
сложности
Input
популярных
Aura
Тема
слава
Tesco
ECO
##очного
Simulator
F5
494
дай
Ill
Perkins
##ходу
Quantum
##ыц
парламента
Pepsi
##ционные
cats
пур
526
543
##FC
##PER
Q2
visits
##ичен
PDA
hill
##плата
##rman
Historic
Dra
##dies
##rami
ISS
Gov
Vampire
##роза
бат
##HS
1813
достижения
##тем
A8
шоколад
##service
Lay
Appartement
rely
Bianco
493
colours
##нни
Corpus
##sista
amounts
##нский
##нце
##шев
победу
relativi
Kab
Chaw
##ушка
Forces
SERVICE
прошли
Ava
##tup
Norwich
маленьких
canon
arrested
устройств
##glo
увеличение
опции
talked
Doha
Taipei
ratione
Artists
##чений
##chin
exposed
Andi
свято
offensive
Лига
YO
claimed
dear
531
методом
зима
12th
breath
13th
Terrace
##blog
износ
##PO
Weil
##вою
8mm
##чник
Operator
дем
Uri
получают
Nowa
convention
назва
##мони
отказаться
малыша
Франции
Chair
##тве
TLS
##ination
решила
715
##вайте
539
FLV
##ьер
матери
M5
Darling
##телю
sorts
axis
справ
hiking
spectrum
заведения
помогают
JSON
##tent
##ater
##cao
prefere
##rys
16GB
carrying
##шина
deposito
laid
Совета
##dler
644
##вии
aging
##нган
конструкция
Серед
##ряд
epic
моего
aims
Wish
актив
##rates
груди
##ilte
##цам
562
постигне
##овен
ACL
нож
Текст
publisher
детски
первая
баня
AutoCAD
2K
corn
написал
Matte
трите
talents
asus
Филип
Rot
Unique
организме
запис
Associate
evolution
responsive
seeds
BANK
##tart
Дори
медаль
whilst
ПО
##Ь
заман
самолет
##note
##тами
##дена
ль
механизм
##лку
##дание
Additional
intellectual
##ysk
##суз
нашими
##afe
1819
ALS
чист
Cala
Crash
photographs
##eros
основания
Campaign
Forward
Lenin
Faro
victims
JO
APR
fraud
дешевле
выхода
##nting
##wall
epo
июнь
bitter
появится
требований
магазинов
refu
машине
QB
joke
belief
##bea
involves
optimize
mechanical
##иски
Maritime
предложить
обработку
Guida
##кость
Victory
оказался
Ato
##onne
latter
тау
ANS
WB
получится
Begin
поиск
Penguin
##даи
Playstation
##rela
BBB
649
##фе
покупать
инвестиция
##BC
016
Commander
calm
711
Actually
Albanian
Vehicle
superb
пользователи
batteries
Reef
##ваем
##жени
Millennium
Naga
немало
544
##жне
##жала
Instrument
writes
617
##ibo
afraid
оплату
Brief
curve
notion
Competition
увеличить
##big
##МА
Armani
potentially
NASCAR
гори
списку
621
законодательством
курсу
Zend
##xos
трансфер
6500
Gin
##making
destruction
caps
видели
сравнение
русский
Sunrise
Blind
Aux
##рной
живо
Атамбаев
##ается
displays
Cyprus
##овна
occurs
guns
Kimberly
предназначен
медиа
высокого
##edia
добры
Raven
JW
##hda
##беков
##yli
Attorney
статей
##even
radius
agi
tram
clan
##rint
влияет
##шение
Mono
ири
815
Kick
Goal
hostel
cables
estimate
Canvas
ци
дроб
celebrity
C5
##рада
staying
render
calculator
прямой
Essential
temporary
PST
##ея
CGI
Nes
##тей
кредита
576
VIA
Рада
Сколько
##poli
memo
tournament
##вета
IP65
Hobby
614
Devi
различен
632
Systeme
комментариев
Владимира
campaigns
Blizzard
703
негативно
##ственного
injured
##чева
Pepper
asp
##брали
рот
faculty
engines
Hurricane
##рала
##pass
Между
Treatment
##ющей
семья
somewhat
октябрь
Hidden
Сочи
##cene
##fre
weren
convenience
##stal
Fins
episodes
ся
##кае
освои
положения
проте
##слав
Within
vegetables
##PP
вход
GF
Teo
Zee
##inski
ры
tourism
Pele
buttons
Martini
Latvia
##ache
ссылкой
vd
antenna
ERC
Hearts
applies
observe
HDL
блюда
Around
полного
ошибки
NPC
Марина
Pari
concerning
prince
дальнейшем
scholarship
Lennon
##бони
настоящий
U2
Terme
уч
Savannah
##вало
##writing
плату
conte
стен
##asin
Tournament
Ой
актриса
occasions
##vere
Gara
Mercy
Jugend
##28
##жава
633
maxim
отделение
##брав
Trojan
Chem
Добрый
##rust
proposition
588
1827
Silent
AES
реформи
granted
complicated
Pump
##нцы
яти
##тивен
результатов
редактор
неё
платы
NULL
##eam
наверное
firewall
Mestre
Wein
harm
##sby
Ronnie
704
pros
##бные
overview
Citroen
создавать
##ниц
Vive
##йце
актер
Quinta
установка
571
##WI
связанные
Fira
1801
BDP
sufficient
##JU
mistake
Governor
##ково
entries
системой
648
мер
pd
##етка
##weit
##chair
roads
Napa
##tens
##нской
посещение
maintained
painted
Bene
entrepreneur
начальника
CD4
трубы
вторник
##usin
versatile
wisdom
##sters
Treasure
##ждане
Mack
winners
Marty
##reden
##шло
##рих
Crane
HU
##зин
Mk
##ленд
Arlington
kV
ценам
рынку
Americas
Soleil
Styles
возле
646
villages
фронт
##еж
способны
024
##тне
invention
afford
офиса
##ози
901
##бора
многим
годов
вечером
Ирак
##реп
Мексику
##чит
##lity
молока
559
##шай
##ума
##ылу
зону
ІІІ
roots
invisible
elections
viola
министра
adaptation
1793
tho
##ipe
##оту
Lev
##TES
интересные
Сара
Kona
Portfolio
очередной
##чава
эффективно
##ffi
рыбы
##нут
Давайте
Chart
Fate
lasting
representation
Circus
мастера
dial
внешний
Kaplan
##TAR
##гач
предприятие
Hands
rd
наследство
835
Banque
Tari
sharp
##ктика
бару
Doom
тен
CCC
##бей
вследствие
Китая
Specialist
indicates
##ача
Tyson
##тву
получении
##ЕН
##чност
##куп
nerve
ANY
Reports
Мир
considerable
##klis
##loo
Jewelry
Palestine
intero
1804
Ish
Terrasse
Loi
Анан
060
tackle
##луп
634
высоким
авторы
осуществлять
Vier
##PD
FROM
предоставить
Madeleine
##аб
носить
poly
ballet
coal
vodka
КМ
##mbra
Creator
##ечен
Emerson
hiring
rece
современной
nitrogen
##eller
##тные
##лих
РИА
SMD
Kaspersky
microwave
понимаю
2GB
Pu
Берлин
##MG
##cup
##нес
males
scratch
##рны
Русский
исполнения
genuine
апрель
debates
##еа
Boh
diversity
philosophy
Sheet
ebay
Towers
##уа
##зал
Ventspils
Fare
Всего
конфликт
героя
##power
Saa
PLAY
computing
Yuri
##medi
исключением
##page
факторов
Ear
anytime
мать
Rules
Notice
stronger
##каз
базу
##ирование
Deci
##simi
Bose
534
consult
breaks
##baum
факта
понимать
Pel
spoken
Govern
##EF
artistic
городской
frames
кош
Illustrator
Думаю
trademark
средствами
consideration
молодых
Ад
попробовать
714
translate
Gem
SER
mystery
Coming
delivering
Gemini
repo
penis
пространства
Juice
542
##makers
Bears
Spy
##мда
Nino
появления
коп
Ай
nurse
##92
dishes
Джордж
##ift
размещения
642
Satellite
rm
dip
suites
Pria
Enterprises
Leica
DEM
пиво
Петербурга
иной
##нули
makers
Apart
процедур
метал
велосипед
palm
bubble
shortly
automation
##fix
проходят
Vali
конец
протест
GG
добиться
G3
саду
##avia
душе
15th
smoking
##ьку
812
Month
##cad
термин
изменение
plates
течении
urgent
556
complaint
##дым
##95
##itor
учета
009
553
Deck
vul
принимает
остана
##ственной
ввести
словах
##rba
Versailles
##гол
567
##гий
heaven
Ню
XXXX
Deri
bul
продукцию
##91
695
587
chest
discovery
Eko
Ven
##DL
survive
##оров
applying
##EST
tired
Builder
651
милион
##тних
Stereo
ша
выполнить
singular
southern
AUD
faced
##leo
coins
##blo
raising
Vietnamese
##юся
Соли
##ням
variation
##лям
distributed
метода
Карл
Keywords
TFT
##bru
##mania
Petri
##ктор
лицам
ФК
##pack
Script
##ify
reservation
RL
IgG
##няет
##vision
HV
constitue
tops
##rva
40000
главным
burning
Sl
631
Sample
##44
##renia
entity
##лама
1806
Хар
sho
creativity
##НО
##ствовать
направлении
horizon
Template
семинар
появляются
Hyper
фабрика
css
spe
Bert
##quin
FAO
HVAC
funeral
необходимость
1803
genetic
##31
aluminum
CSA
betra
Было
экономики
SaaS
официальный
Combo
##crit
Drink
nma
suppression
CIO
занятия
Desk
junk
АТО
совместно
говорил
ADSL
##мни
##books
Moving
появился
Vine
##сток
replied
altitude
Items
песен
сна
настоящего
Privat
574
параграф
mc
685
Эй
способы
Иначе
MED
##тим
HELP
Оскар
Setting
##door
##еда
Internal
Admiral
##polis
##рони
prese
Patrol
everybody
последствия
##ыч
24V
Borg
фунт
##эк
Midi
tende
assigned
viewed
Castell
Rivers
известных
##пит
805
Jude
leaf
##аки
SSH
специальных
требованиям
755
wider
546
молодой
547
Boots
##алу
##rating
verified
ТАСС
рукой
агентства
рекомендации
защиту
purple
способов
082
Gone
##ования
Lone
##cele
1650
Carnegie
направил
##aris
##IV
Slovenia
##right
##mart
##щиков
широк
##iness
##OLA
портала
российской
##еге
powers
injection
##бору
TPU
Newark
Growth
races
Ferenc
Processing
##unti
wondering
Peninsula
воздействия
любят
полу
Drops
назвать
##voi
Mons
reward
##сту
conductor
cents
Political
accidents
ума
напротив
обращения
ис
Against
1808
Cities
Arti
demands
Natasha
monsters
observation
Gross
соба
Waterloo
Ventures
МВД
GOLD
##пер
haul
farmers
туристов
##тур
illness
Ling
важным
usr
babies
blame
следующих
ensuring
отворен
gaze
##GER
scroll
WR
Кой
##тивно
drops
##берг
Drum
dancing
конфиденциальности
maintaining
литература
Citi
Logistics
1e
Additionally
transform
штаб
играет
Brush
Titanium
Sirius
Cargo
сути
Slovakia
liab
E2
аспект
Quant
costumes
Southwest
##зит
##PT
Border
ставка
1823
beef
Less
underground
1780
городах
flexibility
mixture
Ned
597
##nst
sought
decent
indicator
Nigel
оперативно
маленький
mx
##weight
Ответ
##uil
предлагают
играе
deeper
Tr
wheels
AMC
characteristics
Schwartz
554
cree
направление
bench
размеров
смогли
жал
Ops
поколение
understood
lovers
главных
крок
##logist
Sto
покупателей
хит
##cover
##нику
сето
Ink
Winner
##шении
UVA
Chairman
выход
Ls
torn
##чал
Seng
ор
##дом
##vski
##дав
Сначала
##lesi
борьбе
##жите
TAK
577
officially
quantum
спустя
CBC
708
Astana
##яться
heroin
##ijan
Tape
##гать
##MU
auton
Radisson
##MM
##ическое
marketplace
Applications
##шись
Lit
печени
районах
##66
Lowe
##рыла
Отан
Wise
Sole
Град
иностранных
dominant
норма
##елей
deficit
Iri
ECU
фильмы
##щению
Broken
##hei
опыта
v3
Cadillac
Tatar
immense
##iris
учин
дверь
Guinness
Slide
Московской
Holt
STD
Graf
##game
##ляют
erosi
Finish
fold
губи
661
Among
скидки
Ubisoft
##tv
начиная
john
правом
напрямую
UAH
legacy
##мене
hopes
Algeria
enforcement
voin
veto
посетителей
outcome
##uting
1817
capita
##hic
##чей
бывают
XviD
017
##ько
passionate
##чиков
Gourmet
624
Trial
crop
Apex
rush
Divine
Exit
exclusively
жидкости
##serie
deta
##metric
оказалось
##INO
Mob
Trots
инфраструктура
ROS
Cleaning
XT
##cking
##дет
ARC
PSC
Rogue
heal
Regular
Butterfly
Seasons
##рать
##кими
карау
##bule
APS
Saw
##мс
unexpected
Tire
##lating
vince
зло
##frame
forti
отбор
##аров
контракт
Odyssey
eds
исследований
headset
greatly
Bud
##овыми
mountains
##вина
AVG
ZTE
##рова
5km
##уват
trademarks
Kramer
ltd
revolution
системот
operators
определено
##шить
известна
899
genes
##RU
Defender
##lining
Rubber
практике
Vino
NLP
окончания
бензин
рамка
##лази
GPRS
##blatt
volunteer
5K
пользователь
UD
D0
indicated
Bc
произведения
ошибку
статью
Scale
##ницу
##pire
ССР
кстати
panda
639
altar
JT
charger
ждет
пить
законот
Cycle
771
finishing
Acrobat
Надо
wanting
будущее
forecast
regards
punch
Porno
Hus
Cry
рекомендуем
cocktails
##торы
##stor
Вопрос
##backs
##ИС
учитывать
##изма
1816
MOQ
контент
salmon
Авто
jpeg
##ESS
##ань
RAF
представи
Instruments
суды
multitude
турнира
sleeping
##rative
Bulletin
586
##erse
##maja
мониторинг
Ott
conversations
Parliament
558
Galileo
##07
##NN
члена
размеры
gray
болезнь
Hg
X2
Egg
admission
council
coating
PES
анан
proceed
568
Origin
Санта
обладают
Finger
средней
organiser
подачи
1792
Qaeda
Prada
deeply
скандал
##улы
высокий
ECM
Bun
narrow
втором
poem
##тых
personalized
##dino
ADD
suddenly
Amp
Dirty
619
IST
##вия
детских
##санд
Stainless
organise
##зак
Copper
словом
оформление
##нети
swap
Hungarian
Chateau
##ельный
Cart
##print
##ининг
##ppel
gett
VB
Snap
частично
Ship
migration
##riva
остальные
merchandise
Gali
Bos
Ян
ухода
Sab
природы
удобства
бригада
##кал
шум
Tong
Hector
elected
##суна
describes
Aria
Heidelberg
неделя
AX
##Up
##HU
SMT
Aldi
месяцы
##No
donor
требуют
##нены
Белград
Debe
##×
Кирил
Indoor
Использование
beam
1111
focuses
соль
эше
SBI
##орт
##celo
loaded
Ravi
Isola
##fund
представлена
ребенку
767
шанса
##писи
##ерите
11th
PCIe
Ramsey
знаний
##rton
HSBC
exploration
частей
Camino
Acts
medi
rescue
talented
рассказали
hospitali
Нас
##льне
минуты
веса
accordance
exploring
deva
##omen
покупка
chairs
Delete
##ision
Tren
DAC
emissions
573
fault
566
consequences
уни
##ерия
delivers
READ
председател
##бир
vibrant
добива
precision
школ
ESC
H2O
Conservation
принял
профила
coil
моро
divide
##nsen
министер
##тельное
##NIA
PAR
##ента
Египет
charts
смог
##жок
HEAD
voter
emotions
##ВО
coaches
preparing
факты
##клад
Используйте
meditation
уверены
Emerald
evaluation
Shelby
6mm
миля
##vri
Romanian
727
735
##графия
Taka
references
баба
584
628
investments
BMG
1805
Ні
выбирать
спектр
запах
Беше
cabin
округа
футболу
##ington
##WS
paypal
##нню
##llin
Assassin
nursing
##лати
##ival
##ONE
Graphic
Hank
##нство
SSC
##pian
##ились
повышения
общения
##ced
##bahn
Buri
##otto
##годна
##лями
администрация
Pratt
клубу
плану
IK
distinct
##ящих
##жают
современные
##лол
Причем
парка
##word
Kommer
бут
antic
##тах
alliance
температуре
019
targeted
smell
Soon
Audit
Дома
ето
##zai
DVI
Hammond
hung
ногу
##RP
dm
Pc
##кага
##ogy
engaging
##кка
Warcraft
судом
spec
pistol
Ly
Баш
647
##lien
ведущих
Opus
##amar
Bulgarian
вверх
##rous
председателя
богат
Patent
Pipe
accede
служители
involving
##curi
##logic
##лини
туризм
Luk
##пад
Legion
ауру
aero
Deli
##рти
##уни
Players
Entry
1775
##ьки
сервиса
##west
##rax
товару
связанных
КР
##тельная
художник
##шага
instances
LLP
комбинация
недостаток
Mot
##ложен
Along
gains
идут
##pne
##сли
U23
656
дошли
Сирия
##кл
##ичного
великого
заболевание
##cious
volunteers
Нарын
Sharing
##сек
заменить
##ладаг
атмосферу
##vt
transformer
Draw
##нала
производстве
studying
SPM
handy
##gino
Issue
757
проживания
Косова
анти
638
##ената
некое
explorer
Yaz
holes
определения
Logitech
Saab
soup
Automation
##eek
##очно
##grade
5x
##йски
письма
##ТИ
condo
Tiny
Conan
тканей
##hka
germ
responses
Наиболее
мною
##gard
DAB
маски
ссылке
Desire
encouraged
точку
706
589
Skills
possession
guilty
##яг
##ировки
appointed
##овала
##ank
хорошие
##сус
доля
мета
Terror
Allianz
Morocco
##iller
nest
ряда
Epstein
##иф
##mag
641
557
нали
ownership
пожар
sync
evaluate
quad
##mates
688
ETH
vacuum
Mercure
modified
Sutton
konti
Jumbo
##три
Fem
promoting
360°
##cach
тайван
Elm
ло
##cali
почте
##иди
678
Compare
##мати
рр
Hostal
victim
кампания
масти
##cra
Scanner
563
financing
pray
suffer
Christians
consulting
##rtin
RSA
Ginger
Midnight
десятки
продолжает
смесь
Слави
theatre
оформлении
Average
утра
Sister
##hono
Школа
##FE
окуп
stood
Contemporary
ходить
##IG
Cheng
712
вилоят
стекла
F3
Funk
largely
##HER
правите
##rmo
1811
##NING
##стр
Rabbit
##75
округ
gained
сы
осталось
tail
outdoors
##dap
законодательства
Oaks
Friendly
Gram
##рку
##sic
##llan
Gupta
578
AMOLED
ган
домашни
##рус
Transportation
##eha
##rl
cave
Vito
581
##бити
redo
mist
даруй
##емых
Bedroom
##vention
тав
Точно
medication
sudo
##аются
##мас
disaster
Former
McCain
versa
provision
комитета
собственной
##даю
Num
1795
ом
N2
протокол
##etic
Chambers
денежных
Prag
багаж
##нско
##стых
717
CENTER
Deer
безопасность
рази
Writer
bedrooms
G4
караган
опытом
DSC
018
##rimin
стратегии
attractions
##рост
##eous
AW
643
заседание
GK
обратить
##альны
вышел
оплата
investing
##годно
гри
пластика
EDT
радост
gathering
шаг
Aquarium
##еи
PDT
dependent
Решение
conditioning
CEST
ночью
RG
оружия
associate
dive
##space
Profi
Britannia
##partner
##тко
lace
hydrogen
среду
Дональд
живут
Brit
wolf
полза
группу
Sme
хуже
Fuel
##werke
Mene
гу
customize
промышленности
##еве
аба
Criminal
##жня
подобно
руководитель
Самый
буе
доступны
Tat
##tures
билеты
Astro
Петров
шесть
Own
##овому
ASD
Billi
##рем
16th
apparently
бумаги
acceptable
Ros
Польша
##ляции
weak
чиз
reproduction
отвечает
количестве
Traditional
базар
научно
Applied
пациент
sover
Finder
##пустили
Tivoli
Cd
Biden
Holm
##уза
##hee
metadata
ца
##GI
блока
##cir
VO
perspectives
##eat
FD
Punto
покрытия
deemed
eb
habits
623
Distribution
##MC
##сига
##drive
порт
восстановления
русского
##ange
Beats
authentic
745
admit
765
Большой
HSV
eas
##TP
возникновения
balls
##арт
Bor
белый
потребителя
Sounds
определен
90s
ЖК
LF
##mod
Scala
##plus
имеются
контакти
colleagues
вера
Greenpeace
подобных
approaches
Bow
Kensington
##еце
dramatic
бива
лицом
Malware
##ѕ
##sou
NOVA
572
полную
821
вя
navigate
Pare
временно
Serbian
CEE
поза
Павла
Laboratory
##dyn
X5
##scape
вечера
Cannon
583
Sarkozy
Лучше
Rocks
##уя
Ике
прем
##esu
туман
Чикаго
attachment
Pal
наводи
outcomes
##еру
будущего
##tinen
##аса
##trip
Rule
magazines
##ованы
Answer
Santi
MOV
JCB
##инки
Liberia
DOM
удовольствие
rough
##БА
##кин
##shot
JBL
coral
Lotto
float
мышцы
##fare
Курс
17th
Tbilisi
Shock
сав
умения
Azad
Ud
696
##цей
итогам
A9
buzz
Арсенал
мяч
statue
##ьс
vip
игровой
##новение
государство
издания
TDI
Bea
##UD
Salesforce
stayed
##reen
1799
брака
##бит
Servo
sensation
##лне
Between
понял
индекс
дама
improvements
Интересно
radiation
налага
Мама
VHS
Gast
564
Brock
Ema
1802
brick
commit
матки
util
Материал
##рени
Packard
км2
optical
Higher
основному
предлагат
##буз
##лица
##iles
библиотека
бренда
answered
598
horn
levi
Invest
RDC
Container
менять
wg
MIN
Southeast
##xica
FIA
##ition
Opt
579
##мар
Maris
653
##ствие
формате
aggressive
##мана
санкции
##TAN
Uzbekistan
сторона
Clock
ANSI
arch
Пусть
unlock
поста
completion
ям
##zhi
##тивна
voting
##ews
visitor
Timo
CUP
Sisters
Georgian
focusing
digit
должности
Background
deleted
Fla
Bosco
витамини
войска
shadow
ww
Recent
Novartis
книге
Azerbaijan
VF
информацией
MUSIC
traditions
Reilly
gps
Were
##уны
auction
большей
камень
##щики
chassis
вторых
квадрат
##вон
Mach
Zhou
публика
##чие
литр
Ibis
gross
Brazilian
MEN
SMTP
Поскольку
657
cottage
##MHz
конкурсе
resin
sequence
ABA
gospel
664
Sig
DESIGN
existent
brothers
090
##два
parade
Raleigh
Jets
##коли
##АР
Mn
Veneto
Mongolia
##альную
ACA
copper
хана
отдел
Bye
represented
##nty
##kine
Talking
Prestige
blow
существуют
Avery
CON
1798
Insight
источников
##ическую
heritage
1791
релевантности
##логи
процента
удалить
эффективность
Sha
##iff
ставить
LAS
возможностей
vulnerable
сверху
полном
profits
ИП
красота
moderate
##истов
параметры
##ац
inflation
лицу
mortal
Vlad
Novosti
пришли
rapidly
Located
idol
laundry
sf
##кты
M6
расстоянию
##исти
MCU
полезно
waters
fired
beds
998
##therapy
лес
##ГА
##cku
582
банков
PAL
##йти
apt
automotive
density
Poor
Gama
replica
Jews
armen
molecular
cong
prospective
##лли
sn
##ельных
способами
inflammation
utilizat
##Star
##КО
fitting
##chant
обмена
stupid
INTERNATIONAL
##кем
Nar
CODE
приготовить
Investments
686
##hell
laugh
654
Света
HER
##lass
Ambassador
chronic
Flor
##LAS
022
DMCA
##пал
Sent
культур
Политика
gods
Hue
клиентам
adventures
violation
чест
hunting
земле
ближе
роз
##шня
sheets
##нского
##pino
Vox
предлог
compete
интерьер
northern
##бени
MTS
##RON
713
проводят
592
Genius
фигура
##lift
1770
Сада
##mental
eliminate
629
bachelor
Rabbi
##нений
##ysi
##ровки
дини
Оплата
##fora
##ивни
##mobil
##building
souvenirs
activate
периоду
priori
##яя
оказывает
##26
Uh
Added
Statement
лимон
##нога
addiction
migrants
праве
cement
Chr
кабель
##creen
##овни
Напомним
печати
Romans
rotation
continuous
объявления
layers
Seed
Дон
ибо
Hare
F4
Magnum
Hercules
915
emerging
##ably
Татьяна
cry
malaria
##оха
JPY
школах
хорошее
Олий
Academic
credito
обращаться
необходимых
коды
SPAM
Haas
Olympics
Tehran
остались
гра
##gnet
automated
##ARI
mistakes
Crypto
носит
ведаю
bs
Cand
promotional
IBC
ensures
Extract
014
способност
зубов
rn
tied
Человек
голове
shit
Yacht
Ранее
##фати
DON
beans
##ическим
участники
Amar
patience
569
stops
##ушки
Москву
1807
manifest
##doo
Scotia
troubles
знакомства
ведет
Burlington
хлеб
втори
##вел
lessen
##еса
Currently
##ящие
каждым
Господь
##naya
стратегия
отделения
627
цикл
Veri
любить
##шту
Светлана
targets
Documents
##gles
Eiffel
целый
2b
Ark
##дача
titled
удовольствием
Venture
asks
thinks
Disease
derived
Challenger
дочь
remained
посетить
ranging
Integrated
lectures
solely
Malaga
ceiling
##евые
Anastasia
показано
Spears
оти
вреди
unusual
Номер
Registration
Добавить
разработки
TEL
##шили
Beaver
проведение
старше
operative
IAS
Shea
compound
##работка
семена
KV
Different
##зел
##KT
skilled
795
raid
ширина
##300
Крым
главной
чека
врачи
предоставляется
configure
Денис
##AU
732
generations
вернуться
Лука
EDM
эга
posters
цветы
Cuisine
orbit
681
рат
Lithuania
bandwidth
отпуск
масса
Большинство
выходит
физик
662
seasons
Bottom
фактически
##тарин
Рейтинг
политике
костюм
Pattern
aqua
GMP
tooth
##рг
picking
worn
нагрузки
coding
тас
depend
##just
##шан
677
retard
KGB
Corn
narrative
Hacker
##LIA
куп
dirty
jungle
FG
ABB
местных
##YS
BLUE
##vn
Macintosh
##fies
Nusa
colored
талант
torque
объекты
SIS
attempts
##nome
##роз
curious
banker
Chevy
##position
##ild
x1
996
ун
Prices
oriented
legis
##sl
TW
Fleming
ванной
##OB
##аев
##лога
##пуск
труб
1794
воспаление
утро
fifth
##info
участке
##жности
темно
Bul
кандидата
##ЕК
##фера
Прежде
champions
мясо
Physical
637
банке
accused
14th
Pio
Давид
лако
##иви
##чини
##льну
downloading
повреди
Dine
##ILE
##его
KDE
stolen
##rvo
floors
ships
663
integrity
##бить
ceramic
бад
TED
Burn
Thing
##omos
Sf
AOL
##mble
##вица
театра
Существует
poet
Carpenter
торт
##DD
gather
приятел
Ричард
##GH
##copy
политически
заказе
Япон
казна
conventional
checks
##quo
##IKA
сага
antique
##ув
собаки
млеко
ответы
##дёт
##таж
Вече
682
bail
sunset
комнате
##зер
Introduction
studied
##UB
CFA
самую
##ered
##ndro
cooling
Warsaw
652
contracts
Shiva
желе
Яг
отсутствии
stamp
хорошего
выйти
##version
LN
лекарство
demonstrate
деце
##бель
905
##fr
##чков
##ekt
UB
##LIN
указать
intent
speaks
activation
рекламу
дошло
сонли
директору
Chalet
Driving
Colour
видя
##овку
легче
ordinary
AUDIO
chill
THB
##рения
##ool
bytes
повышение
количеством
массу
Трампа
collar
##ард
отличный
Galleria
Nis
chin
soap
Logic
frozen
Хорошо
Node
огромна
Length
тая
Aramco
Spectrum
enti
ТОВ
Effects
мас
Больш
##garten
Barber
уверен
процессов
mobility
##пки
Farmer
##map
50mm
настан
четырех
Mig
предмета
Chic
ISSN
washing
Degree
мамы
Администрация
refresh
##nomy
Apartamentos
0800
KZ
transferred
вещество
minds
согласия
Graduate
бог
Мая
Choi
##ensi
finances
##дается
##няти
nol
acquired
##няют
workplace
##уем
показала
##олу
recours
##market
TEN
PNP
Rosso
Час
замок
Combat
##pula
Rui
##api
желательно
Warm
##сад
##lanti
детский
instantly
Sergei
##ану
##ondi
##eral
literal
##culation
опасности
##rix
Хотите
Armor
##ену
##ционной
Maxim
V3
footage
разобраться
observed
отца
##fio
lm
shoe
inspiring
Orders
##зат
nervous
peri
ash
Misa
РС
заступник
findings
viii
посетили
откуда
659
##ажа
никакого
optimum
Fixed
packing
полное
785
vendors
музыки
##анды
##тта
Palacio
##ером
announcement
dresses
Samba
##tner
Программа
MSG
explanation
Kredi
Charter
##nburg
Bili
старых
Kathryn
подтверждения
OTP
enemies
##даем
##терин
trains
appliances
709
Nil
IES
##жную
##´
edited
abilities
IIS
Orthodox
Load
interactions
бокс
Uncle
RIP
silent
попасть
Regal
стресс
classical
variants
Shampoo
811
слабо
Voyage
##ьким
запрос
долю
818
##изация
Warehouse
##енты
основного
##enz
Swarovski
каждая
031
intro
##зад
свободы
минуту
##туп
##rann
местного
Bodi
passive
##rious
BAR
horrible
844
waves
##iest
sponsored
еды
RK
Законом
продава
##ERA
приходит
Швеция
Sword
##ther
##щено
HOL
losses
разговори
##йм
downloaded
MENU
Soros
##кта
DMX
adopted
rc
SES
716
Эки
flu
P4
rati
receiver
embedded
рубль
Fishing
Frontier
##linger
понравилось
##ысы
##шний
##вици
mounted
##isu
архитектура
медицинских
рассказывает
Pattaya
совета
файла
R5
предварительно
shake
cleaner
Получить
attending
##IMA
продолжение
Крис
линк
Citation
##нички
Киеве
##ходи
##porte
отель
гора
sensors
##рики
divine
##рованный
тесто
##оя
##ляция
государственных
редакции
initially
cru
##сады
Меня
employed
Starter
##bond
acute
##шими
клип
диагноз
wars
CRC
Алекс
приеме
дополнительно
большинства
bf
backed
591
847
Клуб
Anyone
##елите
##hav
работал
условие
моста
overnight
##чными
Utility
Merchant
оз
##ож
KPI
necessitat
ресурсов
номером
Plasma
станут
Тони
puppy
RSI
dirt
определяется
отличаться
Доналд
##бори
гражданин
##DING
1350
апа
Deco
iMac
ARE
##34
Numbers
среднего
shades
##Jet
914
suppose
##tise
Draft
letting
672
помещении
фази
menus
рекла
668
Бен
##200
Cure
таш
Vene
##GS
вероятность
создании
##жних
illustrations
Peer
Cayman
Xo
туристи
ORIGINAL
variations
здание
ministry
summit
мач
Rebel
698
кеш
079
EO
потенциал
химия
cardio
##epo
Uploader
декабрь
Sheraton
colorful
Октябрь
dozen
##няется
##нями
productivity
русских
Phys
worship
Mats
Parameter
advantages
##mage
ranked
камеру
ALI
Meri
Лечение
передает
804
shade
##дете
##ленный
берегу
физически
Nassau
repairs
Дэвид
функций
acquis
practica
Пре
##нными
leasing
удари
Citroën
годах
поделиться
consume
##fere
##brand
593
избран
##ерей
##ыка
Bavaria
bow
##O2
получилось
коллекции
thermal
отговори
предоставления
Holder
##UX
довести
Rental
Mur
образа
rev
NPR
##дны
phrases
дно
safely
##хати
Giro
иста
msg
коллектив
оказывается
##лату
fortune
внимательно
658
ambition
maritime
картинки
##НИ
recover
Nile
Diablo
##йного
доктора
settle
правилами
жити
751
Kerr
способность
671
hyper
impose
trunk
IPC
помимо
##mpu
TOYOTA
Smash
##tats
Команда
Макс
##дний
fingers
Tonight
реда
акцент
Brigitte
ideali
attract
594
728
каждую
##альным
##ervice
Bugatti
разнообразие
##ывается
##банк
духа
заявила
loud
##рика
##тил
врачу
##бии
doses
ВО
902
эт
мобильный
##ког
рабочего
Crescent
continental
Aero
брати
cognitive
смысле
##лях
Intelligent
сторони
##жиж
specialized
TEST
##ционного
паспорта
стаж
добавки
Overall
##ината
Ayu
regulation
polymer
receipt
нико
VD
linki
booth
RoHS
доказ
documentary
piston
центром
##ляе
баа
Coll
Agile
673
lips
IDC
##usion
Руслан
Sinai
необходим
управо
современного
modify
##яа
бази
##шать
ап
ISI
смеси
IRC
##еро
##писки
отрасли
удобный
Португал
##fl
V5
travelling
Cos
кровь
Луис
транспортного
##pien
SAE
##тник
##чам
arrangements
struggling
qualify
joints
училища
MLM
##брати
environments
Fontana
Вместе
простых
##upo
Petroleum
colonial
стола
Returns
##LIS
vegetarian
##works
##ENA
тексту
Progress
##ьба
черный
праву
encounter
816
##oft
живет
Gaz
массы
заказов
Relax
ASCII
CSI
somehow
examine
prominent
причинам
1397
##delt
arrange
Gamble
733
1797
Spar
trucks
memorable
обязанности
Reform
Вместо
attraction
676
abandoned
deserve
flour
матче
threats
GAME
mattress
amenities
стена
Accessories
тарта
perfume
КП
precious
Плюс
UVB
Hitachi
naked
##дае
highway
##дити
3300
Beau
Identity
Lamb
Listing
##awi
свыше
Corolla
Latitude
##fax
##honi
##ises
войти
туш
##руются
##DP
Беларуси
logs
perception
##inci
названия
делом
Alcatel
кнопки
##зка
charging
Pic
PID
##rp
NAB
государственного
Drag
##бий
использоваться
Dacia
803
тона
##зли
Веб
OTC
Sum
Doo
посети
tourist
gases
зачастую
##ёни
722
1b
involve
Witch
028
лична
##тип
##рук
Publications
июль
merely
Sis
843
##ычны
##ивна
mechanism
зи
градуса
##erti
маслом
generali
beneficial
gs
ссылка
ноябрь
предназначена
##енде
обе
Lie
третий
ответить
уста
заключения
стаи
##Tech
creator
дорога
##льному
##тить
Burberry
MCA
PSI
bri
отеля
BMC
Министерство
##бус
Rimini
дав
Zn
731
Cobra
монтажа
кости
горы
поездки
печат
Великой
##рман
##ited
fn
Tele
стара
retailers
progression
Elements
агентство
##ндар
721
Смит
Turk
##енно
dispute
UG
сау
struck
impressed
Pause
beautifully
движи
##атов
хорошим
975
шок
Slip
богатство
##вари
TECH
Vittorio
##OX
защите
Ботев
ски
Rosen
##гр
596
Couture
топлива
##фия
provo
Роза
Cs
площадки
подобные
беле
Caro
Kand
salary
suffered
запас
queue
principle
кода
сорта
Stranger
мандат
TPS
imaging
Championships
Жалал
##ровали
Projects
RTS
проведено
wishes
улицы
bets
##uos
консультации
Concerto
chemicals
paragraph
Список
exercises
подходят
##жей
Ake
##пес
unto
wt
##abe
качественно
##илен
##liso
tier
##оме
##went
C6
Вулкан
Staro
тор
плани
674
##ection
силами
##есет
фраза
##bite
Given
##яды
долга
connecting
вези
ГК
Advisor
##мах
spine
детской
XXIII
##ологии
##ctic
##бного
##чень
cab
##color
Monitoring
918
Кои
ше
подходящи
angry
далеку
implemented
Македония
##86
##рав
Athena
Наталья
вызвать
Bou
доступу
руководство
Grow
Lisbon
##хам
факту
главного
prospects
##woman
секрет
Shake
Parents
regulatory
предметы
определя
DEN
walks
compression
##дение
Siam
##сию
##walk
engineers
Mong
recall
членом
Deloitte
##ncing
заявили
Energi
deni
equally
##рор
##rns
##ющихся
учи
##щика
086
прилага
Output
##bound
ward
FCA
ширкат
##гори
Marketplace
добу
Quali
##йл
pointed
##овска
magical
shelf
STS
Авиабилеты
annum
##BU
принципи
Whatever
Electrical
##бина
партнера
ощущения
##йс
различными
774
skull
##стов
cardiovascular
ждут
Liber
Shape
лечении
Subway
Demand
##EO
торговли
##otis
Модель
гель
nc
specifications
916
##аза
Partnership
##KIN
Prior
attendant
Pom
disciplines
fabrica
Period
bomb
806
687
роди
##льним
Stuff
##кли
Exhibition
ощущение
089
педагог
##лял
##енное
хай
SITE
cheaper
опасно
спор
второ
кишечника
strap
сек
##arat
684
Leisure
Dib
urine
перевод
DER
Odessa
Boxing
spiral
supplied
кров
##cony
##нени
##rder
##rame
##рне
metabolism
912
##VN
excess
tray
отправить
hopefully
зимой
gentle
Investor
Holocaust
назвали
1796
клеток
##asy
##come
##имо
Sioux
Союз
##вода
##бный
##воз
manifestation
fastest
двое
fatigue
laun
832
Saba
alien
##ором
различна
##овина
IMEI
lion
Валентина
##teo
##orat
муниципаль
положении
DTS
bull
appreciated
WO
пришел
##mach
Вода
##юн
cooperation
##стана
decline
##тийн
##зина
silicon
UPC
044
doub
затвора
официально
##rance
724
Marker
VLAN
##яты
situated
H3
Zebra
##чел
##lding
Busch
атаки
возникают
attribute
CDI
972
expanded
истина
определение
Guns
Statistics
Hydro
Logg
prototype
полета
##ONA
##bbi
hs
друзьями
RSE
sensi
##нали
Eaton
organism
Crisis
jQuery
Дизайн
регионов
причините
interventions
Unix
828
##UK
возврат
##рят
ITV
##форд
##vee
icons
965
Broad
RMS
операций
Axis
tuning
##стави
##technik
Лас
comp
некоторое
749
Tsa
Xerox
clearance
принципе
showcase
##lst
представляют
rarely
суть
gateway
elaborati
стар
authorized
листи
неким
734
tubes
##gger
1783
Jew
##мом
disable
стадион
##pou
universities
тренинг
спаси
libraries
Gallagher
ребенком
эксперт
##ежда
входить
riches
Гэр
drill
985
##гом
##саар
поруч
##ieties
интерьера
##08
Бойко
##вао
преимущества
Fairfield
##иза
Праз
##цо
##вили
1150
Activity
гради
gravi
комплексу
enhanced
Neft
десяти
злато
слегка
ролика
занятий
##уб
балл
balanced
рецепта
HUD
##шений
посетители
##vok
соглашения
Binary
BAT
##оси
shapes
thesis
Burg
состава
параметри
политику
единица
Azi
Independence
оценить
captured
##cist
linka
раде
##тая
##тации
presidential
сетях
Colors
noble
Naka
modular
Oprah
##85
помнить
Ги
CSM
WMV
##BLE
официальном
здрави
попут
bullet
##пати
recipient
детского
nuts
kingdom
##flower
доклад
##plo
прибыль
открытия
##sau
##яв
Петр
##ывая
Vit
##World
943
вывод
MET
##рева
##оты
читатели
toast
капитала
сл
##hoff
execute
strata
kav
##тою
##лди
mq
Maintenance
Иса
комфортно
##жень
Зеро
##sure
##ися
Carrier
Дети
Behind
Meanwhile
ворота
Vt
члены
nz
Clan
##metry
Battlefield
865
бонусы
X3
##BB
Fleet
рас
##lize
741
integer
Нов
чат
гарантирует
##nted
lawyers
Tera
settlement
##71
##тику
ветер
российский
spell
1010
##fro
Специалисты
##ьному
мина
MTN
блюдо
Apartament
669
Медведев
выходные
electronics
Launch
Daimler
assignment
фразы
Forge
pleasant
FIT
VV
careers
видят
##wards
elsewhere
853
Classical
##пов
##ием
Главная
CASA
extraordinary
V4
##ATA
knee
pipeline
##tream
##uss
физика
Браун
##ттер
оказались
##ORE
огромен
##ляется
UNHCR
Интер
нива
##ife
##ivel
Digi
##род
сказано
examination
814
Турции
Весь
Jardin
dominan
СК
##наи
Lunch
220V
мощности
остальных
##App
1777
Боже
##евски
##никам
683
##нность
##вете
decorative
eleven
##oce
YI
##лля
содержания
русской
Ebay
744
granite
##рави
Tunnel
adjustable
Loss
Protect
должность
глазами
Mets
ordering
камер
Карта
##rv
##дных
##дня
GLOBAL
Какой
сотрудничества
2160
##мун
Pirate
rubles
Сот
hospitals
grounds
passport
страховой
eventual
урок
##дори
##ываются
учреждения
##ече
благо
##arde
##тану
##дери
##lude
бассейн
технически
aimed
Fellowship
сцени
пенсии
##лить
laissez
компонентов
хама
Sak
резко
Pac
давать
oak
органами
Baum
DJI
Eni
направят
Данная
заработать
Lili
Fallout
##мады
##РА
##OH
известный
Thriller
G5
poverty
submitting
##лета
Harvest
NIH
Built
опера
mold
WW
##ировка
##ringe
земля
damages
##чани
##мого
Jaka
небольшие
следствие
##шел
бактерии
Разбира
tries
##рная
duties
##дож
Berkshire
никакой
честно
Количество
textile
passenger
##ическом
pond
Assist
declared
Вашей
металла
сбора
bride
водитель
создает
obstacles
уведомление
собственного
десе
##зар
чемпионата
Ene
станция
Цены
Руси
##cute
профили
Straight
PW
зубы
##real
испод
короткий
дев
внутренней
Cur
##влен
Catch
Mute
##вчи
Kis
##cope
##ply
worried
##над
проводит
Gorilla
граду
697
T5
Gerry
основана
поводом
Львова
##рою
entertaining
мажи
strain
давайте
ен
Wait
##bte
919
kh
hood
Еве
DAT
Васил
##дку
Cher
##маи
русском
surely
Sic
Почти
купите
traces
##ложения
Opening
Mansion
##рив
##tical
куче
##RIS
столицы
Grass
Computing
sits
ADC
складе
693
advise
SYSTEM
Ferro
##ulation
Pn
Христо
##NER
Q10
##хор
Judas
basement
reboot
Drupal
правах
##hawk
VSA
DOT
##LF
органах
##хар
##чному
потери
locked
ETC
rocks
experiencing
MAY
городского
Mechanical
озера
Speaking
ходу
оператора
intuitive
Kodak
timely
##вено
842
pn
Salisbury
assess
невероятно
вопроса
сотни
ENG
##ORD
limitation
##брана
HDPE
employers
##hardt
##chis
945
Rack
Capri
УК
CNBC
##фикация
подать
служат
туризма
##чении
Sar
##ulti
719
##ybe
##нци
летнего
противника
Booster
общий
кн
##мии
TIM
Plain
973
бета
##IRE
воздействие
726
importantly
##09
Ding
Вера
позитивно
confusion
##otti
pork
собрать
направим
##тични
suggestion
692
исследование
DPS
##стика
Правила
Всяка
##щина
Tomb
822
Манас
Tester
половину
##lr
##граф
среде
833
Ogg
##яны
united
Ден
Ul
страв
popularity
1787
CU
soldiers
friendship
Новые
frequent
##ivity
acids
HG
алкоголь
табе
773
Diva
##жити
cooked
##риш
Hazel
dash
природно
DB2
Tos
##сел
узак
divided
##ище
##лото
Сви
Rubin
готови
##oty
R4
##оят
##quita
##ATION
физических
##ANCE
Brick
россиян
ITU
##IVE
##tism
##дени
Conn
##ничка
Barclays
структур
##ложи
##нке
055
##ствия
ниско
socket
736
Equity
WRC
знакомств
Alive
Assurance
эн
вовремя
Tune
##ута
##жил
Inta
столице
imaginar
786
##ьев
обязан
специальной
любителей
refers
cord
decrease
difficulty
примери
developments
Hee
Vital
площ
##щины
Volg
regulator
skype
061
##ложено
GV
DAF
подходящ
##тным
LSD
909
региону
картины
1002
##chs
Kremlin
рассказала
Святого
урд
##gaz
сайтах
##lative
817
медицинской
оружие
держать
контекст
##бур
Жас
##ebo
Optical
1060
срочно
objectives
withdraw
твоя
hackers
ht
813
##скому
##slav
UW
excuse
финал
народного
relaxing
impacts
погода
IPhone
##shed
flood
083
meaningful
##ception
lord
лучшее
Dining
##ельно
действовать
judgment
расходов
FSC
succeed
Machines
691
Mori
Gears
тил
сериал
cups
Configuration
внести
ДАР
признаки
772
угодно
903
##Works
##баи
##лса
##иль
Ry
##рным
улучшить
prevention
governments
##бати
вещь
смак
##льник
physics
witness
hint
SY
Saddam
##туры
##ИН
789
Виктория
гл
sw
removing
Конкурс
fascinating
художника
хос
DOO
Роналдо
30th
поддерживает
signals
screw
Daw
детские
##алж
представление
##тени
Lufthansa
отношениях
поддержка
Tele2
amongst
температуру
interact
Deputy
##smith
травы
##аан
##маса
MSP
Muse
Папа
Vara
UNIX
729
SHOW
##pero
семейства
##рге
##ёд
Boo
персонала
##зды
Wen
##онии
##ехать
targeting
##щений
##ечна
Kin
outlook
TOEFL
756
fewer
Paras
##есе
сборной
10mm
Padova
##емые
anonym
spyware
ndash
3C
Россией
странно
754
магазины
voted
##тайт
ткань
инфекция
containers
098
##ork
ICD
5e
##зки
1788
TXT
##нении
##дри
LDAP
сайтом
близост
689
##hange
появление
toxic
уход
023
Пользователи
907
специалиста
Италии
##vation
##ELA
скажу
substantial
overcome
столица
Fold
ошибок
##ёна
##бод
браузер
жили
095
##юз
дос
priced
##рдын
различно
##tock
lying
grep
##рыг
запросу
interfaces
животу
fails
IBS
Або
рассказать
##chel
895
##fone
##400
снижение
estimates
оплатить
Фонд
##идан
##kind
Крим
##wid
WMA
##орот
PREMIUM
077
rewards
essentially
свободу
rec
Mania
теста
малого
##TRO
##бок
prep
##ICS
##евого
MIC
золота
circuits
ferry
spacious
USAID
Рио
знака
Самые
##лона
lining
Чаще
Solaris
Penal
##дить
военных
prohibited
##rh
VIN
кожным
destroy
платье
suits
Paramount
warehouse
Magento
англ
actively
Regency
surprises
Dolphin
bd
зданий
remarkable
776
Японии
ханым
компоненты
##лугу
##VER
##lko
границы
oldest
Mah
Валентин
TSI
spy
establishment
##ciano
representatives
##blu
cylinder
схему
Waste
компонент
бомба
juvenil
##mund
проведении
territory
прежнему
экрана
обеспечение
дуго
сати
Sva
Important
доволен
produces
Чин
Widget
##нях
##Link
хас
cnc
IGF
Burning
одежду
nobody
UDP
Buena
detection
Продам
XXII
##лак
032
Израиль
##uing
##ляла
038
1760
успели
Советы
##Ed
Fab
Starting
ученика
##Ю
Corsa
ATC
oils
pulse
Hire
пенсия
профиль
ASI
operational
864
composite
занять
областях
##shen
##OA
997
DAYS
Coal
##кав
Союза
relate
Schiff
Следует
##мяна
Azur
Reach
норми
вдоль
##кос
##чето
##ylan
направо
Biology
Aspen
##басы
сюжет
ибн
принятия
##rob
правительство
Unicode
предложений
##ложена
Gre
directors
лежит
Dayton
##фы
Jacket
somebody
productive
4WD
##дания
одни
##ающие
Antivirus
Downs
##ект
счёт
кете
Present
##free
технологи
Знам
##див
Basin
destroyed
##ДП
теория
эксперты
##ируют
океан
##яе
CHE
тренировки
Австрия
решать
relay
##пата
ОС
753
Nuclear
Plans
kilometers
1782
athletes
adolescents
паст
852
блога
##прави
везде
строк
ours
Stora
##ежа
##aile
диалог
Mobility
##eft
Dur
Rae
площадка
млад
democracy
overseas
шума
Lagoon
audiences
республики
occupation
1D
сата
caring
сва
крайней
emphasis
976
##ваний
Assessment
988
##данд
earnings
25th
##iete
развивается
твой
##inate
824
##тама
Община
Ryder
movements
anonymous
компьютера
Token
sophisticated
Luxe
intake
февраль
discrimination
723
##elling
отбора
URI
причину
многи
##onar
1GB
glasses
brake
##едно
ценности
Петро
Classe
stomach
спектакль
наказание
Микола
Rings
feeding
notified
новостей
748
перечень
##hend
араб
##ньо
Antal
##PLE
14001
waterproof
Adsense
##цира
европейски
taji
сухой
FTC
instructor
dealers
Bleu
1450
906
analyze
ELISA
ТК
авторов
##чество
INT
ogg
grants
Further
##Ј
тихо
четко
strings
ITF
правы
bundle
##жина
tears
##week
апартамент
trash
##uas
integrate
середине
Melo
Хэн
##лду
confused
поведения
Благодарение
specialists
##кали
consistently
##щенко
voters
752
##гара
Mic
Сад
чу
китоб
##ТЕ
руководством
папа
Poly
Moc
Norske
##улар
CAC
917
##ьну
##нности
сафари
железы
088
096
Ecole
RAL
behaviour
heavily
засал
funded
VOC
нама
наем
##reas
##27
Pagi
хорошая
Devices
Tomorrow
Advisors
Marble
Colonel
##loy
##ованных
разбере
packs
Profit
susceptible
10x
предложил
##ological
Ве
YB
##емой
грунт
Време
Managing
M8
Lonely
surfing
гап
Pakistani
##orm
##обод
следить
8K
protecting
ITA
Kraj
диплом
Директор
находиться
##уется
Monsters
innovations
Gender
##ице
Webcam
Individual
моему
##нец
weapon
Passat
потребителей
Zion
высокие
wardrobe
Больше
bash
935
##oC
Taking
knife
богата
##LES
Nights
Duka
##OO
думать
обувь
объема
EVO
033
##zov
gathered
Челси
##marine
растет
##цах
##cape
БА
весело
strictly
beloved
##laim
Cleaner
778
terrorist
texts
ид
Загора
ld
##IH
lda
Gamma
рука
REACH
прочие
TEM
Function
3B
Carrefour
##дол
руз
версию
858
характеру
Doors
##hima
807
диагностика
809
##tep
Accounting
премии
DMC
##xel
Wai
##асны
WAV
##inet
defend
реформа
COB
Hor
SLA
barrel
Chemistry
Leg
heroes
факторы
##чаны
##asu
Capture
остаются
ранг
ложки
приходи
advised
панель
##NET
##mone
Tarot
Testing
трудности
##ственная
studios
##есен
MediaWiki
locally
##зах
Дан
FUN
dentist
788
войне
календар
Voyager
Около
##раны
##рим
passengers
##change
notify
edges
Саша
Scania
investigate
развитии
Cartier
##athi
инструментов
1550
Президенты
Firm
ярко
##Pad
PCS
аренду
студентов
Secrets
042
alloy
1660
##ITY
receives
прибыли
окружающей
sellers
Delphi
pills
##ейн
##guard
COLOR
Receive
##ляются
addressed
apartments
Several
##pedia
##Care
##elf
##yll
Музей
883
adv
##sbury
sewe
Gothic
##cell
Первая
sunny
Basil
диска
Beg
athe
pylori
забава
possibilities
769
Fonts
endless
yield
miya
Tian
694
Mirage
Жыл
grateful
soci
современный
лесу
Alcohol
##адзе
sympa
L3
Македонски
Paste
forgotten
editors
spectacular
работой
##47
Elephant
варианта
составит
Ritz
читайте
standardi
1774
Hours
инструменты
замены
831
##уды
Pics
##лс
Grip
##лити
Inner
gauge
вышла
##root
стакан
Uzbek
warming
##лсон
##riso
золото
##мову
##отен
колхоз
ample
реальные
рабочий
##см
Rudi
##шет
Bliss
928
Egyptian
permitted
cult
Ria
##nish
пада
Olu
rendering
##бери
LX
protector
##РС
представлен
##гача
прочих
##щими
Trick
035
affiliated
tiles
##хаж
доо
hunt
##рованной
##анне
поднесе
Условия
##вление
dyna
00€
##eep
trails
пакета
Итальян
##tely
жилье
##дент
##шняя
##зена
пункты
##това
743
rob
ESL
участием
сектора
Moreover
нередко
Kl
иные
Cab
857
##йни
##тинг
##uth
лучшим
катастрофа
Q4
Advisory
планеты
##ради
районного
ИТ
обороны
tutor
планета
expressions
863
предстоит
##йд
SSA
##GHT
minded
acquire
habit
partial
voices
Начало
##ncies
Warfare
STR
segments
сну
##ельная
ведае
conclusions
expense
##пределение
басы
Жол
ghost
surrounded
carb
FIG
Bia
defeat
Obs
вар
##56
##ьним
Марат
763
horses
##дая
RDF
opposed
килограмм
милиция
848
Chess
execution
фокус
sentences
diving
geo
Assistance
служить
ФЗ
красива
QA
shame
предметов
городу
акне
##слава
##LLE
Casio
854
virtually
Ещё
##soft
СНГ
Launcher
написав
##bian
##ичка
cons
президентом
##есть
CDs
TRUE
##imizin
P20
огромный
Inch
##ённых
##илась
chairman
##писка
ROCK
avenue
complexes
##yce
Newspaper
LK
Shen
##ственно
Екатерина
##itant
ряду
placing
Steiner
Fifth
##щания
Muslims
международных
списке
armed
депутата
позднее
798
##нета
##нарны
761
racial
RFI
##рте
739
twe
стандарти
Казахстана
parcel
тренд
прича
##рва
очереди
подарки
создан
1778
##лиев
ln
вод
threads
implant
constructed
bbs
графика
учат
Analog
celebrated
Fitch
DUN
##ожен
настоящему
##keeper
sacrifice
849
последнего
##usto
##bow
клубы
Gris
photograph
##вших
##нк
валюта
соединения
выдачи
Svetlana
Retina
handed
##DH
##грузка
crown
задачу
##ntic
Kamp
INDEX
годом
pursue
залог
dataset
##цето
971
вряд
##елени
предложи
##ПП
Lime
заказы
приоритет
delicate
distri
acceptance
диван
Sor
##брани
##fici
Британия
директори
Обратите
teens
##ведение
ITS
bonds
##ваю
чоп
wings
зиму
linen
шаблон
Besides
pushing
делается
##llis
Retreat
Майк
Pegasus
Monsanto
mysql
WK
781
1M
##бари
отношению
##мые
Medal
атрофи
следующем
2040
каталоге
##boat
Sani
Русе
Ino
981
##vig
заместитель
stopping
Драган
##нча
ACP
823
##лл
законопроект
marr
absurd
PDV
этими
ATA
##стям
##саи
shuttle
тер
##hap
aureus
##вании
##тит
каков
sleeve
Bellevue
seamless
пользуются
разными
liver
результатами
выглядеть
##лев
933
PCM
Architects
##xy
substances
##евна
Triangle
ПВХ
красивые
сахара
ICP
##LING
##aco
Scooter
promises
paintings
##ried
##MAT
гуми
Mongolian
ЦК
выгляд
улучшения
TAP
участки
##reso
##ища
##зода
##джа
##шайте
разговора
##gator
ребята
Артур
квалификации
silk
##ония
moisture
rg
868
Уважаемые
captain
направили
##парат
manufactured
##вные
Ars
результатом
общественного
##KER
Coke
болей
Слово
brigade
девушек
Nami
relaxed
disi
##HR
##bey
верхней
ванна
SON
Кад
##пише
738
Kiwi
alike
##atis
publicly
акций
loads
Дания
##bers
Данные
##бере
теории
seating
Им
citizen
останется
органу
##кала
референдум
##endum
1980s
browsers
##ngton
Brest
соглашение
Example
908
##шо
##boards
766
SLS
##иж
уникальный
##ъя
боя
Сама
обеспечивают
Blast
cloth
##стые
expanding
лик
Fighting
##шные
результата
Заказать
UCI
руководителя
хозяйства
##еден
черен
AUX
границе
дорог
peas
885
Gar
954
DDR4
смс
солдат
##раса
Зачем
Eure
представления
##рлар
drain
условиями
Запад
ventilation
принадлежат
##ctions
Василий
качеством
##зана
psychology
используем
##ехал
bc
Bluff
врачей
моменты
Letters
##days
Mille
диагностики
соблюдать
слоя
iela
Resistance
слобода
##irm
SPC
NEO
762
manifestations
свете
бороться
hammer
##рю
ICS
речей
родился
ребёнка
1785
кадри
Вашу
Furthermore
ойр
grades
##сер
Xiao
792
vague
Великий
Барак
##цкая
Lamar
Moni
restart
плод
##временно
##eos
законы
PSE
##ящий
742
фестиваля
Bt
machinery
competitors
gardens
affects
tiger
explosion
##аат
двигатель
Nasdaq
glory
Aut
##юр
Recently
ThinkPad
##video
больных
##erit
##нном
##эта
специальный
iis
##гам
рана
Facility
Physics
KING
прийти
потребности
ingredient
759
##ереп
##оса
регионах
##зол
physician
##ича
скидку
интересна
сфера
tonnes
independently
Folder
##очи
dic
##cultural
##яной
indication
##кони
##ьо
лека
mutual
мышц
дисплей
##ющиеся
Reebok
##ливий
шо
955
fence
inflammatory
ATS
jail
Unlike
hike
картину
##аме
Autodesk
Musta
##liner
Bold
##мей
H1N1
вкусно
gf
facilitate
Generale
технических
Maschinen
финансовых
##лис
1920x1080
Operating
зеркало
##стай
##лика
Monthly
##йский
827
электронных
ставок
##лози
дао
CIS
министры
расположены
личный
окно
unlikely
Lada
Grave
##hvi
##rec
Lives
Motorsport
##рсан
eva
preference
5L
восстановить
DSS
abc
proved
deer
autumn
##рске
фильмов
##лением
spark
folders
удобное
drank
Merrill
семь
##жар
вижу
картон
naval
признание
##амы
Ивана
определенные
Array
##Ž
##EU
contracte
Broadcast
hydraulic
UBS
Tourist
MSM
##тических
обращение
дози
##ляв
loader
Splash
лесен
жар
empire
зелени
4200
746
##ience
841
producers
##tran
Jar
##pola
планируется
Osama
Fes
современном
infections
minori
PLA
apparent
SCP
порой
##йк
rolled
степень
detect
способна
Teaching
##пар
hitting
##TRA
pushed
Юлия
купили
922
##дный
826
##IONS
определена
чаро
Beam
GIG
##ленных
mapping
Ans
расположение
Токио
Bones
заключение
##mix
orchestra
##torial
зла
Ie
##РИ
Rode
779
звука
##DEN
##sible
##ровании
##ылка
##аn
Others
bucket
наличия
##сок
##кации
851
protective
856
##ицу
CZK
тока
Сингапур
миллиона
Org
towns
trials
966
##кси
GREEN
Passport
DDR3
типов
Peach
Viewer
1784
тата
Герман
##енка
Razer
brave
оплате
##ИК
##chemical
opa
Resolution
limitations
поддерживать
Ды
wsi
ставку
##бной
##мала
Firewall
##тические
работник
beaches
##вие
плода
Dama
representing
886
вреда
##fli
кислота
fairy
##ЕС
жилых
эски
##redi
легкий
интересных
удара
##ument
##ух
feeds
Sander
иза
снизить
damn
##зом
букет
##зания
счита
сорт
##вому
Горан
колер
##active
##nick
##зны
minimize
Hate
недалеко
floating
Cons
##team
Mormon
воскресенье
##жном
##comb
Registry
slippe
Cats
земель
исходя
наблюдается
превышает
Armada
##заи
##GT
Tir
connector
Rockstar
зелена
Lido
quit
836
comply
вопросу
chemistry
##culate
берем
хв
holy
cre
MMORPG
принимают
Benefits
производитель
##aio
старого
Navigator
Крыма
HLA
Lat
посади
completing
##plex
tranquil
DEA
применяются
команде
##ёй
сестри
профилактики
flex
944
Billie
submission
связаны
сбор
Emperor
статуса
Eq
foo
Наличие
Interest
acoustic
##UAL
##zhe
Wealth
ow
доступен
##roll
схеме
YMCA
Dig
заявка
##зора
defensive
graph
семей
REM
Tiki
естественно
Vorbis
ESD
MAG
guided
MT4
CCI
##еген
КК
психолог
elders
хода
клиенты
Велики
пришла
интернета
провел
esp
929
Delicious
WH
Novotel
affairs
Hewlett
Tsim
газет
Encyclopedia
аккаунт
##адка
хорошей
994
##gny
Абад
воли
decoration
##rgo
##стий
##иси
926
Finding
##нам
половине
##AB
бла
##matic
Transformation
humanity
##лети
##рство
листья
лицензия
animated
cellular
Рекомендуем
Neuer
погоди
memorial
следующим
##yron
медали
доверие
втор
##neti
Lamp
##чками
##лиза
designing
##вели
семи
##pile
кВт
tires
настоящей
Cluster
758
078
автори
accommodate
invoice
счастье
сериала
##пс
культуру
Rak
impressions
valley
##LK
выборов
846
праздника
797
200m
посещения
UNIT
architect
##tead
Electrolux
xyz
применением
regen
##pf
lifting
##няв
##очная
##кости
##брала
недвижимость
образец
субботу
##нны
правилам
##road
##имов
##ерно
##amp
##ега
поставили
retired
deluxe
явление
argue
Educational
thoroughly
Sano
sony
приводу
941
settled
##ured
Kn
Аргентина
наложи
Amore
внутрь
акта
Sell
Sapphire
состоялся
Бага
Univ
prag
promised
834
Phu
Джо
CAF
GPL
долги
hectares
##pice
##ровал
##zmo
##лада
##khtar
##linu
Ма
##ifi
Mercer
pairs
Indigo
CTR
MSc
issu
диабет
##etro
бесплатный
RFC
аппараты
##манд
огонь
renowned
офф
##мны
adequate
##DB
желаете
Oleg
Purchase
Wyndham
cycling
1781
робот
##bps
прогноз
активного
интерфейс
##раа
blast
популярность
портрет
знал
Vip
ученые
Networking
головою
бутона
retain
Amour
x64
балкон
##ATE
полезных
##МС
ответа
986
Literature
##йского
Workers
Witte
Ала
##емен
показатель
доставкой
hinder
recruitment
отсутствует
Депутат
Euros
Mighty
стекло
leverage
##итет
filing
Quarter
knock
921
KAN
доба
##77
##шите
783
masters
Powers
ought
Sonata
личного
##зите
президенты
Pran
встреча
увеличения
venues
песню
Rh
NAT
##яются
##ВД
Various
выборы
залы
##цце
819
rf
prefix
1640
##proof
Playboy
##няются
##cura
##енна
Touring
##дайте
Dimension
cmd
052
KLM
Проблема
PTT
R8
Yorker
сентябре
##fran
Виж
смело
обычный
balcony
##щину
##Sport
jj
Quattro
##жие
повышенной
pointer
Automobile
обнаружили
##ovy
пытается
##бас
суди
стоять
климат
Avalon
200000
forming
dp
deco
##osha
excitement
##фин
##ешки
Installer
##НС
Парламент
OV
Leopard
tear
862
##разу
заведение
##ops
уведомления
##раи
##watch
Pers
selecting
Имено
юридических
##unes
comparable
##ясы
Pixar
##lter
alleged
##тини
hadn
complaints
Diamonds
Новом
##ерии
##рол
lend
##онад
аккуратно
manufacture
tribute
аппарата
AHA
сахар
measurement
сообщений
1020
enjoyable
Sk
celebrating
представител
Ergo
capability
SEARCH
имел
Arra
определенных
Ремонт
Алтай
##rgen
##LINE
отсутствия
rounds
anchor
веру
##ТС
##оба
touches
techno
Docs
##love
российские
searches
Macbook
##talk
##уши
##стен
provisions
Defence
колу
модуль
3800
Similar
reminder
laboratori
091
MAIN
Атырау
кай
Bono
CPM
donations
fore
##init
bottles
работника
Fon
Горе
Eid
строительных
##льными
кампании
##дата
ночи
##сной
##вард
##STA
Marbella
##лее
##пор
территорию
embed
ответил
Будьте
Timer
женски
Чехия
##range
laptops
зарегистрироваться
опция
disorders
764
mailbox
881
Gra
продать
Sui
Futures
##pathy
приказ
##duction
791
БССР
##исты
прах
##лма
USM
участков
##psy
Сталин
передачу
нём
charming
##уются
squad
кислоты
disability
путешествие
имамо
882
##place
CVS
Includes
GRAND
##ОН
##erty
##ктар
Ue
829
1740
новыми
Ватан
##SION
выставки
##жба
ЕО
мероприятие
портале
спортом
##600
##ственным
Калифорния
суде
Moo
воля
072
Самое
DPP
Pino
##тска
Prep
Riot
##гун
##тиб
ошибка
полето
destin
выполнение
climbing
Commissioner
##ующие
expo
##диги
##жаю
Patria
прибор
##кле
Incorporated
Trucks
низкой
удаления
##zha
Ombudsman
991
099
outer
##рдан
Tala
Certification
сценарий
веке
advisor
viable
времен
##зата
##neck
##OG
incidents
##нады
##жек
biological
elevator
##вои
Павлодар
##влена
VL
##дная
##мену
революция
##раб
пароля
установлен
Милли
Manage
descriptions
##увате
Ler
Extended
##cla
крупнейших
987
Elf
##Web
##uted
nº
##stream
SMC
9999
Флорида
MASTER
##nion
гласа
AIM
launching
##ubi
##ronte
услугу
wines
CMC
торговых
##арх
838
Palestinian
сув
DELFI
##MER
Спартак
расчет
колеса
Alu
trait
Blank
Evi
Convert
LOT
##tones
navy
mandatory
страниц
сцены
Organ
##тури
##эйн
##EZ
remind
виза
мозг
частных
##nging
##SK
david
governance
913
Term
blink
##нике
welfare
##ычным
##отки
пули
Вт
Lover
фотографий
##жае
нефти
болезней
sanctions
применяют
Metallica
Tatiana
пораз
##pone
AZN
Cortex
RON
Destination
повысить
arranged
формирования
знаком
холодильник
TSE
легких
timeline
EXPO
самолета
раду
gui
##РО
##жет
viewers
проблемой
063
интересен
##home
billing
##ТВ
собственных
основным
Fuck
пунктов
высоких
посетите
supplements
князя
gro
expose
PTC
Chavez
любая
physically
ист
796
##ъи
##ику
Secondary
Марка
Passage
##oud
075
stakeholders
Михайло
VID
reside
##ofer
CRT
resorts
##dell
1970s
упаковки
miracle
оказалась
Slovak
ежегодно
##жана
областей
служит
указанных
034
Mixed
гражданина
sb
cooler
##рап
анги
Gaulle
##итель
партнеров
immigrants
Centers
nomina
собака
подключения
куб
гарм
Fee
Coalition
XPS
Sidi
Lotte
##зити
##латы
##tap
Pb
клиника
##IGHT
здрав
Питер
назвал
782
Скоро
гей
reads
SMEs
optimization
##web
воздухе
##иска
FW
Му
##сень
отопления
PART
Carlson
искусство
laboratory
нашла
##динов
Selection
возврата
Speak
помню
60000
generous
MAR
##ВК
##IB
2h
##hao
##вь
##isco
Суу
assault
##cari
##пуска
colon
тв
игровых
гас
##Me
Справа
##ORT
мс
##gnos
100ml
measured
Groups
##лв
чём
strive
Aspire
Almost
calculated
inclusion
grams
Ent
excessive
Пример
incorpora
##алт
вред
Lav
##ивания
Election
победы
явна
суп
##мия
##SR
Result
необходимое
##ifo
скорост
национальной
linking
осуществляет
##мых
##HC
##ёз
Sn
никому
француз
Latvian
##стки
кухне
hee
транспорту
##ечки
##state
Форма
Часть
dump
Turi
Prevention
подряд
RBC
##mith
colleges
##быр
интересы
словно
thyroid
RUB
BMP
wrapped
structural
Gigabit
этаж
OCR
lodge
verification
##зори
##живают
painful
служб
bust
##boot
##fd
шкаф
ears
subsequent
пятницу
##ressive
дын
Creation
##сил
unused
Dimensions
##кус
предполагает
Sanctuary
knowledgeable
считаю
##VIS
ограничен
Боб
subtle
bypass
##self
##ttan
эффективности
Revenue
##rove
conservative
Ама
Антонио
понадобится
##JO
##стой
tongue
полезные
##бук
Дана
LAB
COMPANY
Fender
Вообще
Amadeus
##бена
Центра
##ict
обзор
СБУ
МО
##овину
Фейсбук
перевозки
Meat
Место
preserve
Дух
Sanya
опис
##щаться
##allo
messenger
##ацию
087
эмоции
есте
tanks
Knut
##бри
Amal
D4
небольших
##иков
пластик
дозволи
##ensis
Sender
Гран
чува
кодекс
телефоны
Linden
1786
диски
##brush
##роти
##lsi
этаже
wage
строительстве
4s
worlds
красивый
Farrell
Зур
##сного
Tahoe
нарочито
знаки
книжки
invasion
sla
##теме
baseline
##raria
Someone
ERR
белом
unn
Pitch
respectively
##шёл
площадью
пассажиров
PCs
Коста
##есни
маршруту
полости
рекомендуют
собственные
##IONAL
SSR
моды
председатель
Dial
##hov
схемы
magnitude
видами
Bazaar
FAST
924
##erm
высоте
3400
relaxation
Maze
ав
соответствующие
ресурсы
TOUR
029
publici
EMA
1234
luxurious
Chill
altera
Belgrade
АО
Rams
Vela
journalism
subscribers
KPMG
Exposition
дизайнер
contractor
показал
##ENCE
Progressive
param
иске
correction
##увани
observations
Beacon
SEAT
Casting
##лева
reduces
Балкан
worthy
дефицит
увеличивается
mojo
святого
london
##рн
##xio
TAB
ADP
fitted
Relais
partition
секса
##bug
##тельными
lenses
миль
measurements
единственный
Людмила
JH
##тност
желанию
induced
паста
##нн
молитва
трав
##ept
PowerShell
##мка
будьте
##pher
историей
dying
##enter
Roof
##yx
Зв
861
swim
##nial
949
##жны
hired
mines
##valu
широка
Большая
barely
##act
Div
интересов
equation
MDB
овощи
859
солнце
горячей
metrics
##ssel
обуви
fragile
природу
реке
##ории
Helmut
режиму
##чари
Куба
##ковых
транспортных
Shower
журнала
депутатов
##38
Право
superiori
lately
tex
minerals
stones
interim
slides
handles
EDIT
бора
Turtle
legendary
manipulation
restricted
separati
научи
##flow
технику
##АТ
##ression
collaborative
штук
##жены
Орон
Git
beliefs
особенностей
MacDonald
vani
близких
Район
Demon
Volk
Звезда
##асна
##sp
##писать
elegance
##дено
agro
принципу
jumping
##rants
##АЗ
взяв
##rash
v4
##tour
песня
Wolfe
fridge
##еб
интереса
Маш
гама
списка
Castel
Agriturismo
##кия
chess
получит
кодекса
##ался
ОН
##очек
дизайну
##гони
работаем
blessed
МК
спам
Крыму
старший
смартфона
сообщить
##ненные
напоминает
участник
Flame
PPI
убрать
остался
Богом
выборах
nickel
##чии
steady
Theft
##rso
051
recycling
##учат
хлеба
##ческими
ADS
vampire
NHK
Друг
seeks
##бная
##rsk
airline
ян
##ВС
Футбол
Crack
Kul
финала
##рци
Ваших
проблемами
RENAULT
Bund
ученик
##ылку
Laboratories
Taa
главу
Colony
##дек
##ллин
D8
говор
попал
##ovich
инцидент
пляж
##стым
bizarre
potassium
Dive
PROGRAM
##ись
финанс
1km
##mul
peaceful
##½
военной
##изации
Strategic
##oos
волю
Пакистан
бывшего
##train
professors
enjoys
средством
экране
уроки
##гари
BIS
собственный
conscious
Отечественной
красный
##versi
гарантия
Vault
оставил
рабочей
##хал
045
Coconut
Lace
Василь
мимо
Uns
плохой
Uk
телу
##FP
composer
P10
PCA
План
SRI
##lux
992
Ago
irregular
Gb
очистки
##огу
Gallo
offerings
K1
стока
balcon
867
efficiently
активность
fixes
Швейцария
occasionally
loyal
963
##TING
##чаи
793
январь
##емо
Agro
islands
Mut
правя
SZ
народных
bilateral
войск
Cir
constituent
##ители
1990s
Sava
вестник
белого
нанести
Shuttle
пива
937
запрещено
##ьской
взял
##цион
tc
острови
##heart
installing
началом
детства
открытие
Мало
обид
956
##лиши
##CP
Anas
##ходить
##омо
Prison
характеристик
##hab
Dyna
симптом
результатам
наверняка
booked
Чак
Нажмите
ноч
refused
Sali
личной
Soc
##ined
##sional
Иш
матча
biology
Tug
Babylon
##дут
##чана
##mino
Великобритании
regret
##шается
##etur
differently
Income
##аве
##вото
##ечка
низа
##ивает
##ified
##riment
adverse
Фокус
##цами
##cro
показа
Chronicle
marble
936
сетей
##вет
##otes
Главный
клиники
##нках
размещение
исторически
Jiang
дей
семью
overhead
##pno
##бка
сосудов
##еги
Predator
SPSS
intl
attach
граждане
innocent
##етки
ОК
unawa
Fou
навсегда
##nders
##бру
##moon
Мастер
##ставки
Aide
JIS
##зея
FPT
KEY
Crossing
realistic
##дуть
##пин
Добра
deaths
герои
раствора
##ЕТ
аренды
Смотрите
abas
##disk
rolls
Марс
931
censo
876
##маа
broadband
photoshop
Agents
пай
Mortal
scor
solving
1070
##ельные
inf
Kwi
musicians
##жая
##ctiv
##жник
constitution
итд
churches
COP
Lithuanian
глазах
экспорт
REPORT
Pair
обновления
projection
951
##ывали
бела
##Life
RTX
nutrients
##lts
carr
##BT
##дак
Concordia
##града
преступления
отдельные
Rhein
CLI
Chao
одежда
увидел
TIFF
##теги
выгодно
HW
SEB
Министр
1520
CPS
legitimate
##гане
Maca
Мексико
designated
##шив
tru
872
##арна
прекрасна
incorrect
Bungalow
KIT
активна
Konstantin
Yesterday
cage
Cause
выпуска
Rockefeller
Дневник
##ех
непременно
sketch
призна
##тали
используйте
приступ
##ционна
возможностью
Машина
качественный
Владе
5g
выбором
девочки
combines
##хой
свети
PHOTO
##читься
queries
Gai
bite
видит
vaca
locate
Colt
общее
Dub
патологии
denied
Angkor
самыми
GMC
##лит
MPG
Maiden
многом
794
Submit
Alpen
километр
889
fighter
tensions
поддержке
содержать
арта
состоялась
храму
Ran
CDA
sponsors
изделие
##eci
союз
Eight
logistics
дил
меняется
комбинации
академик
днях
shed
##фан
##вшихся
##елем
952
064
веры
смотрите
осуществления
fireplace
выпуск
содержат
тексте
парень
тендер
##жав
Сайта
Духа
насос
Даниел
народни
##ically
построить
893
осенью
oxide
Hathaway
MCC
ГИБДД
выполнен
##STO
##stant
secured
Buddhist
##cl
Pasteur
##еша
diff
оплатой
##VPN
genius
достигне
правду
Vero
poul
motherboard
##йска
corporation
Выберите
Embassy
rege
wherever
Groove
PEN
эффекта
screens
Estonian
##щаются
##muni
react
##ssing
##дне
бод
Mist
выступает
губернатора
медленно
игрушки
encouraging
включени
Хари
конкретного
BSA
##пия
##ющее
##ндан
повинно
closest
ФСБ
sculpture
##iting
Tais
Vertical
справиться
##оге
##хе
resulted
Haa
поражения
учителя
##борка
лат
Год
Тик
corresponding
HOUSE
груз
Originally
##size
synthetic
rho
##ior
879
обо
1758
logi
##dition
Bridges
##nist
##outs
8m
доходи
Pentium
##ичне
идёт
IFRS
свойствами
##robe
##учно
НДС
CDR
именем
##гас
heater
замест
##bao
##бла
Koi
criterio
политик
##ложить
liable
##иум
Азии
##чанд
##елена
вскоре
Sponsor
Музыка
неправильно
QT
LDS
артист
foster
insta
TABLE
дорого
дольше
Caps
Буш
качественные
хотим
##USD
##шаны
departure
Depression
получаете
темир
славу
##тной
EDGE
cycles
troops
##вляется
Дел
DIGITAL
Mentor
Финляндия
нестанд
CLA
CBI
композитор
Vide
Предлагаем
Smooth
Charger
местные
Economist
869
##erio
##стая
Awa
centuries
Consider
dense
EBITDA
учет
##uck
MODE
финале
breathing
##dow
##ACE
будучи
durability
SARL
##ERT
defende
##Card
vm
Experts
допускается
##ryl
##HP
nationwide
Показать
1007
newer
stabili
invalid
reso
871
Днем
Био
Luce
067
##mant
contractors
manually
##finder
Gul
практик
Regulation
##ствен
окон
уровнем
UNC
contributed
identifying
важные
angles
3b
добила
supervisor
близки
##ital
BAC
Гол
звезды
Arka
##гыш
scientifica
YE
slight
969
Bid
Ghi
Belgian
нашел
P5
Corvette
crises
Atari
##ergi
989
outline
##рке
customs
sisters
884
##ито
##жко
##RIN
cruel
##LC
решением
specially
управлять
любому
Пользователь
inevitable
консультация
novels
алма
Богдан
revision
8500
1772
Pres
flesh
dilemma
treats
Cosmos
Crimson
Scorpio
купил
##pella
monuments
Engineers
Очевидно
independence
castle
методов
BOSCH
Innsbruck
##були
технические
##овар
Gian
следующего
вопросом
FILE
Заголовок
traits
Generic
комнату
##ulsion
Nirvana
Ново
Riad
рубля
##block
##влено
##ЗО
весной
Hangzhou
hardly
NX
Thermal
##nche
Бурхан
##лая
presentations
здравоохранения
простым
basics
consensus
согласен
##ield
украшения
##уван
##каи
##City
Carpet
968
Regent
harmoni
назначен
сигнала
surprising
изначально
Лев
слот
##станция
Подробности
##иво
сцене
##стор
##бота
##рест
##ностью
Macy
Елга
##VIEW
якобы
##yri
стандартам
Messages
Herzegovina
Critical
выберите
Пам
оставляет
##атели
Drivers
Krone
11000
дороже
coordination
##чене
услуге
пан
##зва
##TUS
встрече
Регистрация
turbine
weekends
927
расстояние
облику
зон
тяжело
cube
больного
##лски
##била
##ilation
involvement
5°
Allow
legislative
conserve
roughly
europe
##lord
##tration
девочка
вторая
1680
##ead
874
##бом
института
962
Слава
FOB
RDS
Rin
fool
##вляет
pockets
Fiori
commented
Polaris
878
SUP
Magnet
AMS
сэкономить
##KM
5W
Pig
Ирландия
##тись
handled
KN
##ави
##ваа
режиссер
происхождения
##бло
Logos
развод
тенденции
##щены
Gamer
coated
сервера
Голова
extraction
837
Illum
доступно
##кара
жертв
FDI
##dly
chipset
##utation
MySpace
променя
Mahmoud
военно
##тыг
днём
PCP
SAC
Haare
##ственное
CGT
##щами
Kazan
##tional
Payments
планирует
трафик
reflection
##DES
effectiveness
Сред
assured
зарплаты
##TLE
критики
Christianity
VU
923
лечить
intensity
clause
underlying
MIS
##ГУ
коробки
977
cg
absorption
##host
пожара
887
Bac
referral
финансов
##сид
ката
##сым
Основные
translated
prospect
aesthetic
тренера
bump
Adria
labour
Professionals
WIN
жива
устанавливается
##евых
composed
yacht
данное
хоб
948
корро
##рк
Them
##чает
Skill
Талас
внизу
##лк
##49
Absolute
eastern
dimensional
лы
acknowledge
##shu
Carry
Rust
50ml
##уден
Bomb
diplomat
2900
Helm
##чают
arb
fires
substitute
##иса
WBC
кожей
##ктер
Полиция
##лой
феномен
varieties
stays
##сул
lined
производител
nodes
##онт
recolle
Proxy
способа
вниманию
лицензии
##ацией
SOURCE
ТОП
Broadcasting
плитки
definitions
##чность
Lies
seasonal
##НЕ
##lof
McAfee
dividi
##вине
##str
членство
журналы
839
alex
##ляем
collecting
veterans
Programs
##няли
Niva
Бил
multipli
##дине
Сирии
VOLVO
CARE
Китае
Стив
separately
проверку
False
speeds
prete
march
лидера
helmet
UMA
exhibit
надзор
Reverse
##маг
Первые
adapt
CDN
ясна
Pirelli
algorithms
PRI
представят
##trol
interpretation
reliability
ДПС
##рэх
respecta
##атар
чудесно
намаз
сотрудник
1730
lone
##ладу
##вити
говорю
жилого
PPS
praise
Customers
Можа
##pts
##soni
Magnetic
Shared
discretion
молодого
чисти
Eros
##nsky
##ляющие
##TRE
погрешно
EMEA
026
##чя
Indians
9mm
капитан
tasty
##вс
Sentinel
провела
сложных
сильнее
айт
влияния
Недавно
ENERGY
festive
Prophet
##узи
qualification
врачом
recommendation
##riad
доходов
Lockheed
Группа
##cei
Skyline
Препарат
Blend
Institution
tones
Socket
B4
Qt
columns
architectural
##ези
статусу
ПСЖ
nafta
##lp
Glamour
отеле
whereas
князь
церковь
Адрес
climb
саму
##ланди
##але
Prospect
##анат
2km
Conversion
Транспорт
Octavia
LOW
Prius
##дзя
tolerance
Capo
##положение
русские
CST
установке
мощность
Ris
KOM
электронную
WAP
##пустила
RADIO
кредитной
reflects
Бат
связаться
REV
responded
повреждения
flush
##уальная
возможных
старые
PAP
препарату
оф
жизнью
Вид
сфери
лука
##ocation
lex
внутреннего
протести
поздно
mixing
Accounts
Ness
##чности
контакты
strengthen
XM
##ORY
километров
insulation
##St
nicely
##оваться
branded
радость
Чим
энергетика
Zeppelin
организовать
Услуги
##чены
Евро
##оток
благодарность
Cayenne
1720
Unilever
thirty
##пой
##рев
Кез
graduation
retreat
рецепты
объявление
близко
##PH
##нур
084
MIX
fleet
Pty
##еме
##дум
Unless
наречен
##ложени
Vitoria
народов
Quay
рыба
тече
df
##ssu
##нит
##app
##vle
Вест
ESET
##isas
POINT
VCD
какао
WoW
##ndr
triangle
##ества
Contract
##рох
дизайны
arrives
perfection
Lol
##атон
готовить
paths
Хотел
##wave
указанный
##dva
##east
Nea
Gartner
BPM
здрава
##pring
Ей
begun
pill
Macro
Jewel
993
Rota
Шевченко
thun
cartridge
Calculator
##рази
здраво
Pravda
Ralf
1763
##амон
indirect
блюд
IP67
##phy
размером
FED
Infrastructure
правам
нашему
##jiang
понятие
заявок
##венция
ruling
##орд
##inated
Potential
встречаются
SDI
093
Trusted
896
возможна
##бах
превоз
##ИЯ
##ящего
097
PPT
Shooter
Америке
detector
Almaty
Ricci
грузов
макул
##вните
UR
DET
PS2
Dust
Yuk
Победы
##gist
архив
XXV
##mmet
присутствует
счастья
##omy
wool
Baghdad
873
##тте
Proc
проводятся
clouds
Nikolai
AMB
##ctiva
agricultural
ENT
##рами
Gwo
MAT
##rro
событие
982
функцию
Petrol
нуля
Croce
Бик
Coupon
MIL
отопление
##несе
##sura
marginal
##пак
tailored
Ottoman
Optimus
nomination
установлены
Imaging
##гил
##екции
##ecto
Cain
adolescent
2M
visibility
веку
##IAL
офисе
tabs
##mora
Sustainable
##енными
UNO
НБА
NSF
Intro
##тельности
проекте
Toll
Believe
ODS
##нести
##aster
##право
Тест
959
##tary
популярные
##phic
подлежат
тия
MMO
hormones
SVG
Hacienda
совети
shelter
##cella
соус
##гиз
motivated
##ьских
McKenzie
Испании
Immigration
nokia
##hz
##бли
Fountain
##ейки
gm
scanning
светска
чая
898
##fter
пользования
старой
Noise
ASF
qa
operates
Hubbard
expecting
##apo
MEGA
##лете
определяет
resi
##оит
terrorism
##жество
кабар
##тони
##бут
enabling
содержится
открытых
974
сферах
Siberia
graduated
Ransomware
medications
namespace
композиции
тракт
##LLA
##сну
судья
1755
##вори
041
criticism
contacted
JF
руи
Silence
иск
##тава
калории
##FL
##ерея
экспертов
##щето
Offshore
##дане
##сч
Мене
Comp
##хад
##NTA
##sdale
делам
superficial
##логии
международного
Smoke
читателей
CALL
DoubleClick
catching
##trate
сустава
творчества
##др
Lobby
Ами
##МО
сильный
##VC
сделала
объеме
##нша
CDS
казалось
3100
FIAT
PanARMENIAN
##зку
Courier
Standing
кадр
4800
Held
мысль
ADB
##hyl
Borgo
Landscape
Conta
данными
алкоголя
frustration
##емый
навыки
своём
настоящим
случилось
seafood
ebu
##lb
##еха
поет
DBA
spinning
Ribbon
REST
договором
писали
##рие
Zhu
048
позицию
##user
Trace
Игор
Replace
##FX
Wrap
ракета
Messer
934
##pany
митинг
владельца
##лору
sustainability
Плевен
контролировать
##дили
##урт
##сата
500000
##щно
##говор
очки
herbs
distances
дозволено
##nson
собирается
добили
##67
choir
chakra
Привет
Compass
##ъезд
Soko
Галина
961
1779
Registered
##кома
surround
##ционни
specialty
Mikro
Mutual
##KK
literary
данную
ADDRESS
Arco
##шный
##кви
Thunderbird
Несколько
пребывания
Playing
politicians
932
1773
repository
Leaders
Gn
##дные
patches
SX
кризис
##ключен
##trin
incorporate
REF
Curve
мам
протеин
Advantage
Stem
##арч
Linear
qualities
Tail
##istent
торта
observer
glow
индустрии
фильме
##ups
радости
092
984
RTP
joins
ICA
PvP
accomplish
параметр
dairy
Надежда
##лдык
##NP
ORA
cares
##WU
##UND
earning
##mission
##лично
Deca
##уи
Conto
головой
Piccolo
aviation
##лец
##raphy
1066
рекомендую
ноутбук
##вале
Gale
федераль
nearest
sampling
transfers
Addison
ACM
Ах
TOT
вени
Lunar
OST
nails
Comcast
Ferienwohnung
директором
водителя
herein
Тука
PRE
Gaston
Tela
H4
967
SSI
##екс
достичь
consecutive
рани
##чер
Torah
##скими
Оксана
Август
такою
satis
065
##ират
##grave
psychological
Fedora
Regen
Анастасия
championship
недостаточно
##руп
Банка
Snoop
Waterfront
корзину
ии
clicks
расчета
bre
MOS
Fujitsu
Товар
##mban
комната
071
##лде
cakes
##бное
946
rese
Ник
admitted
Publishers
90°
##нити
SUN
workflow
cis
внезапно
Recorder
amid
держава
##фаи
ИА
##оля
##сом
939
##800
игрок
мого
Character
correspondent
Relay
природного
SPS
##дным
инструмента
##рено
##TED
vessel
##янд
снижения
dividend
##шид
uc
panic
##рис
##ART
Всегда
##pl
##Line
Jazeera
пойти
смее
ОАО
светла
##ession
Arabian
Proof
Reel
Mort
##анс
Бош
спа
pending
сп
##иби
##зема
##hten
##hub
сделает
Andrey
pagan
Орта
##ruit
зани
дохода
Фильм
converted
##BL
Garland
##емого
скидка
сделка
Suit
реальности
продукту
responsibilities
Ares
##due
027
SEE
маж
концу
##nics
Nec
##новения
3°
ставите
Syrian
трудового
Гранд
terrace
1С
##idge
Monti
##etar
farming
Murder
##город
infant
WEEK
начинать
девушку
Vent
легенда
XXIV
gently
##54
замени
embrace
##лею
услугами
Aras
##ьник
Saad
harmful
hence
определи
DHS
##ански
стиля
общественных
крема
началась
специального
дорогие
регламент
##роду
Aur
слушать
Temp
сет
1063
MTA
смысла
Teachers
xp
##coni
CIF
thrown
лоша
искал
канале
##щества
ETS
sudden
11a
##аша
Crest
##ляр
watches
обычной
августе
waist
891
театры
##гел
VBA
disclosure
##АС
treating
facet
custodia
##aver
lust
##жер
separated
delayed
##29
arsenal
Levin
honestly
chamber
Quin
посадки
discussing
Medici
892
проценты
вечно
##оши
##тичен
pubs
logging
treas
bonuses
новац
Doing
##tm
Collier
шил
crafts
заседании
clever
Migration
Usually
незаконно
повышает
мобильных
THAT
##дит
distinction
buses
CHI
отпуска
песок
##cade
кровати
Analyst
Cane
Observer
НК
##кна
Composite
justify
прекрасен
warrant
WikiLeaks
Формула
шири
##enom
DPI
выставка
составить
##лтон
##тная
drove
##heads
дол
std
dried
затрат
nb
942
зуба
##eric
disto
платежей
exceed
##гнуть
Win32
резюме
центри
Tile
Seller
конструкций
спать
лицами
##INI
Тодор
Rather
грузы
Symantec
953
SWOT
нижней
помер
эне
Aw
STI
mounting
основан
shore
сыра
##ASA
Юнайтед
страницах
differ
##тые
Yar
carries
##ждении
краски
Vanity
##шила
5C
##iр
крепления
##нап
##учи
##тис
царство
нарушений
похоже
creatures
withdrawal
наличными
specify
MVC
TAC
##dule
соответствующих
##уллин
##еду
##эры
губернатор
смени
anybody
##жили
реального
GABA
unfortunately
fever
балет
Iraqi
##iving
##даст
eclipse
ВИП
Оставьте
Sawyer
##alli
GEN
УЕФА
Linde
Goods
Troll
транспортной
##ИО
Sac
accu
messaging
мужчину
1C
##нову
OPC
Agra
##явление
заработка
##писа
выплат
сегмент
##ываться
Essentials
##бов
##tarian
##ёк
Господи
УЗИ
Rud
PIC
CMA
##дот
Genie
обща
Chevron
amen
Symbian
##фор
убийство
напр
##шает
баян
Jing
гру
##вный
xs
DRIVE
MDR
Другие
##тру
bulletin
высокое
spinal
BRI
##ывал
UTM
dressed
##urf
Газпром
##вным
##quest
##ЕД
builds
AGE
breach
приложений
##числения
VIEW
Speedway
СП
буква
жену
Владислав
ribbon
Категория
##rement
##raft
##plu
отстрани
вест
stigma
традиция
cursor
общение
полтора
delighted
понедельник
хартия
LANG
Maxima
Fen
hills
Deg
##ящей
Отец
Алена
##деги
паркинг
illusion
Birth
cosmetic
##осу
##ычную
сервисов
##жбе
Cycling
separation
гарантии
##фис
Schedule
workforce
barrier
Kemp
Programming
обычных
##рыв
Блог
ecosystem
Велес
##ntin
SPR
шал
Greco
Cass
удобство
pq
вывести
##дува
недорого
##otic
##ике
Hospitality
полезен
слаб
##ault
masses
учетную
##хти
разместить
мобильного
##ground
secretary
Riva
##щенных
личных
обратной
FHA
Ramada
##пион
##сса
##жнем
встречается
##IER
##ъа
##дарда
##зив
##ject
TQ
столу
##муш
Moran
Soi
##ляю
##саж
LJ
Mystic
Alo
мери
нации
##RMA
Patio
передать
Гарри
Presidential
##LM
Индии
##GEN
accompanied
последней
ATR
Twins
Араб
замену
964
##ычная
sancti
boats
израз
##мос
benchmark
##ндер
Hertz
##ованные
Литва
Turks
##зани
палата
Sola
оставаться
blocking
##лими
countless
062
##мне
##ирате
##рыш
север
sticks
hesitate
5o
подготовке
CRP
действием
Fim
938
Süd
suited
Украину
proportion
Rec
Кейт
кабинета
achieving
Mauer
Wim
ручной
Шоу
STUDIO
NES
литра
XYZ
защищает
compassion
##Page
рота
##оте
##влены
##нон
Outside
Reporting
Territory
маленькие
Ive
Pfizer
магазину
затраты
здорового
motorcycle
neighbors
внешней
валют
Inge
##мая
отзывов
Yao
EDC
##дачу
кислород
Нового
Principe
Lid
pools
vaccine
##ards
classified
вика
rays
торговой
##ыны
pulling
##ript
Juno
053
979
##AX
##FI
№1
CCR
quoted
Merck
Тимошенко
ANN
Пад
раздела
комплекте
позволят
##оле
контролем
##жению
competent
знала
Fina
напряжения
Март
MZ
commentary
##гате
источника
894
замуж
demonstrated
бывший
VAS
candle
##cise
1960s
##КИ
##вку
##loi
##элт
modest
loyalty
Roc
##ashi
Puri
рыбу
Perl
морски
backing
хал
##versa
SCI
раку
##oth
linge
headline
гараж
##мым
figured
1768
кур
##unit
заинтересованы
##рете
учреждений
Mines
easiest
сочетание
употреблять
##NAME
##тек
Tables
калу
оказаться
b1
E5
Причина
##жив
тенденция
Dne
Вашему
upset
Выбор
##рованные
983
сак
Democracy
простые
##Center
Discussion
##illi
##тору
батыр
Dor
##ностей
Форд
##шер
OPP
##иву
##вч
кал
databases
полковник
Anaheim
striking
Института
вклад
SKY
документами
ЮНЕСКО
##Score
##рип
слави
##нген
redirect
малых
demanding
заметно
##fla
##шне
Bah
CNT
Село
Mixer
racist
Meridian
##венции
ORDER
этапа
климата
Masse
забудьте
contributing
Role
hungry
UH
Connector
servant
Сергея
tractor
##ROS
участвовать
monitors
Donetsk
inquiry
##отека
memorandum
покупателя
DVDs
личность
фабрики
особе
Дмитро
ий
consciousness
модны
devoted
farmer
Nitro
##Pro
economi
ASIC
Был
##чине
составляют
Navi
##даются
GCC
potato
SMB
общаться
1769
Manson
##MH
Conti
energetic
##тике
attributes
restoration
persistent
##ьон
весом
Midland
Сразу
Comes
054
##мония
собственно
##ressi
cb
парке
fs
##asno
##ZZ
aids
пытаются
2C
представила
хранить
departments
1394
выделить
Digest
добави
Doctors
стене
задать
##ински
границу
ARS
##гали
flags
БЕЛТА
Каждая
Aro
beings
каналу
Turkmenistan
Planner
chase
умер
деревьев
thorough
OLD
offense
правильного
##irl
metallic
2S
Mean
ГО
Employment
##dena
##гра
##клар
Inspector
зависят
второе
decimal
##руге
##nfo
такса
лиги
JAPAN
ALA
debug
бесплатные
897
нежно
intensif
Bod
steering
##води
dg
##ssin
Electro
unchanged
тобой
профессиональных
rocket
##йне
##жати
modeling
basin
militants
Vert
potatoes
Compliance
tourists
##оста
VOD
##чиком
036
kms
взаимодействия
1099
076
##унку
создают
Moulin
уменьшить
Riding
contos
leisure
Було
##годи
быстрый
Ду
intimate
entities
ехать
менеджера
Введите
MacOS
##бейт
disappointed
сочетании
civili
годам
существования
##етно
##сир
supportive
outs
влаги
##вност
CASE
Порядок
видам
shorter
Juris
казал
##UTE
сведений
##kev
1765
Dashboard
##таа
##бран
heated
рабочие
##дены
Грузия
##rega
стоп
оби
страха
vegetable
сигнали
owe
SIN
##ference
применению
Бразил
CVE
bush
зерна
##гата
##евать
Structure
Mantra
Торонто
интересное
##яем
сотрудника
##рез
presenting
##гот
усилий
DFS
##инен
mysterious
##клы
abandon
##реде
появилось
##брал
христиан
##гт
билетов
Inbox
компонента
черно
##ssal
Cascade
угоди
поезд
##чину
S60
dioxide
Karimov
##дении
##йской
пауза
##зок
Анатолий
accomplished
##oul
##тический
trem
sapiens
камен
NPA
шоссе
спортивных
Latte
Ему
difficulties
##scope
reflex
системах
mentions
##рации
commands
clone
958
##vable
Мира
##зацию
имели
SLR
погоду
USE
##entia
##ount
Вадим
Fleur
passages
Worlds
humble
лесна
Maserati
пищу
Rx
TAN
Welle
Permanent
##43
Menorca
ОД
##ствующие
защитить
Russ
##nham
metabolic
стабилност
##AZ
concentrate
ручки
##сным
поставил
Opinion
обязательств
Breeze
данная
decides
##берете
нега
glue
Lombard
KEE
валюты
Валерий
##fira
кора
местом
rifle
Ber
traders
##AND
ресурса
ограничений
супруга
productions
##rator
##яу
IPCC
947
Acqua
тариф
фен
Eminem
посла
exp
занимаются
ECTS
FIN
Sergi
Cana
молодые
видат
##quent
обоих
cozy
дневна
Желаете
Dogg
дили
наблюдение
отправки
capaci
быстрого
##наз
##pop
AST
HACCP
##фир
##ёны
Obe
brokers
производить
transparency
##хит
##оде
accepting
adopt
Bucharest
консультацию
maximize
##ilitat
##мерно
важное
ethnic
важный
plc
господин
технического
##tkov
Dungeon
##ася
F8
Bota
оборони
DirectX
sql
распространяется
defect
Dept
viewer
иное
Alp
пользователям
уши
травмы
CDMA
OPS
##торов
уходит
experiments
симптомов
Bib
SSS
insiste
##манов
Jas
романа
Restore
единствен
научиться
##cun
G6
идей
delight
1H
##йся
##сине
##шана
landmark
poses
потока
Adults
##53
вызывают
##гры
Hide
Kal
##туре
counts
Kine
нин
разница
BET
круга
XC
##гати
дорогой
lighter
##дений
E0
companion
##учу
measuring
учиться
##cript
Alone
Вьетнам
мячом
принц
демо
Aladdin
##87
##стане
нагрузку
##ptor
##пустил
##крыть
дополнительной
клубе
##дони
dryer
##jing
ARD
сообщила
banned
upgrades
##сная
attempting
пользуется
Било
Abram
##CTION
##REN
Док
написала
boundaries
Ле
torture
часове
FBS
PwC
genero
фотография
##берите
restored
вышли
FRANCE
EIA
##йде
архи
mh
corrosion
##дной
screws
Хай
circles
trillion
Перш
##NU
##браны
##52
##редно
secretaria
##minat
купе
восстановление
absent
roaming
compilation
##aring
freeze
обществе
Faculty
FLAC
##вов
Первое
##Ware
ногами
##lson
complement
autom
leak
darkness
boarding
##ьт
FO
аргумент
##ивные
##MAS
половины
SCR
Daewoo
##грева
##DF
RIA
Neumann
собрание
##ёра
MPV
Aircraft
USR
##аго
GAP
##mova
объявлений
Lak
##лэр
покер
##пали
широкого
##rill
приходите
итоги
Citizens
definitive
##FR
STEP
склада
STP
##ивается
Remy
Жизнь
switching
мусора
##стные
##ходы
internationally
Agricultural
##68
##path
Linea
dozens
rope
LOCAL
ВИЧ
домах
вручную
безусловно
GN
##тото
Георгиев
экономической
ложку
##раше
##шае
##RL
splash
МКАД
##DAS
activated
Самая
Температура
RES
cocaine
небе
Spotlight
лед
жены
tribu
strikes
##REA
##roso
##national
##бным
pressing
consultants
охраны
везе
Жена
lawsuit
зайти
Tah
духу
копии
екс
кайта
##working
Fam
DDoS
overwhelming
##phon
##filter
Raid
отмечается
строить
emerge
##дил
длина
##FS
площадке
жанр
adjustment
активен
каждое
grows
##keeping
ethical
Свято
BBS
митрополит
Buyer
полк
блоки
##нги
##рода
IMAP
полезна
[...]
